memory_initialization_radix=16;
memory_initialization_vector=
F93B,
0699,
083F,
0643,
0A4E,
0068,
00BB,
EE46,
DE1A,
D9FE,
D676,
DB4E,
E1A7,
DF7F,
EF07,
E20D,
F1D2,
F56A,
FD55,
FF80,
F8DD,
EFFB,
01BB,
FF6A,
FF83,
F7EB,
007C,
F861,
F8FF,
FDA7,
0983,
08ED,
F930,
0C4B,
F355,
E4E6,
DCD7,
C807,
D57A,
DD57,
CDE5,
D70C,
D6B3,
E02B,
D31C,
DCA4,
E42A,
FC9F,
ED74,
003F,
00BA,
020B,
FAAF,
F6A1,
06A9,
04B8,
FACE,
F9FE,
0133,
FA79,
0AB2,
00D1,
EC0C,
E75D,
CBBE,
CF7F,
D1A1,
F2B4,
F075,
DD56,
DF98,
CD10,
C92B,
CC40,
E228,
E798,
DFFE,
EEE4,
EC01,
F838,
F68A,
FA40,
F6DD,
FF7F,
FEB5,
FC67,
0B56,
1590,
0823,
04D2,
F0EA,
DF66,
DC14,
DD34,
E491,
E2F7,
E4AC,
ED79,
E677,
E2F4,
D8EB,
DCC4,
DF54,
E73E,
E7CA,
F07B,
EC74,
F5E1,
0120,
FF93,
0240,
FD7F,
FE39,
08B7,
12CD,
1684,
FEC7,
EF6D,
E77D,
EA94,
EB1B,
DFE4,
FAD3,
ED8B,
E355,
F0FF,
FBB3,
FDE1,
EB43,
FB86,
FF0A,
F575,
0AD6,
08D7,
F502,
03B5,
1727,
FBC1,
00F1,
067F,
FD2F,
0AEE,
1942,
07D8,
06B3,
E4D9,
ECC5,
FF35,
F835,
1172,
0001,
020B,
004C,
F550,
E8D2,
EA14,
014F,
0C95,
F23B,
FA16,
FFAD,
0620,
FCE4,
FD29,
13B9,
1174,
FDE9,
0628,
0232,
1454,
143C,
1241,
11D6,
0197,
06B5,
FEF5,
0550,
0B29,
0546,
07B0,
014C,
1141,
0ED1,
0F51,
F9C0,
02D6,
F4E4,
FB3C,
0C6E,
05AB,
2025,
124B,
03D8,
0E11,
043B,
030A,
0761,
172E,
20A8,
134E,
0A16,
0573,
0616,
06AD,
0C64,
0065,
0DA6,
037A,
06A8,
0542,
FB6E,
FD93,
008C,
15A7,
FE13,
F4FF,
F847,
F8F0,
0D13,
0B15,
12FB,
0A36,
00CD,
0016,
FE7E,
168B,
05C8,
1042,
0A3C,
F9E0,
FA53,
EFE7,
08AE,
0631,
FED4,
0E2E,
FB1F,
07E3,
F471,
12A7,
F7A5,
FD24,
040F,
FC44,
070D,
F415,
FFB0,
041E,
0579,
1B2F,
04DF,
F9CC,
0E6D,
0CB6,
0953,
1746,
12E9,
FF93,
0AFA,
0D38,
F6FE,
005F,
03DB,
FFF8,
0DFE,
1AAE,
FEAE,
0360,
FF9F,
0683,
06AF,
F4AC,
0A62,
15DA,
0C0D,
FD25,
FE15,
07F1,
02EE,
0AC3,
0F33,
0E3F,
05E8,
2272,
1F16,
08E1,
0651,
0CAC,
FB94,
EE72,
FC98,
F674,
FFFE,
EE90,
FD3D,
F2B2,
06AB,
FF77,
0668,
05D0,
1C2B,
F63E,
0017,
07A6,
04C5,
0424,
0F62,
0535,
033A,
0835,
10E8,
1653,
0F5D,
0AFD,
0492,
0E5A,
0E25,
1A30,
02E8,
F3A8,
06A9,
F358,
FE2F,
0BF4,
0150,
0FF4,
11F1,
0113,
FFC0,
F5FB,
0476,
09A9,
1600,
1401,
0204,
0EA0,
0E3C,
177D,
09CC,
1173,
11CF,
0D6B,
FAD5,
1813,
0F78,
023D,
009D,
07AB,
FE8A,
FB8B,
FF9B,
FC97,
0130,
020E,
FE29,
00FE,
0A89,
064C,
1CF5,
1A39,
2171,
058B,
06D5,
11EA,
14D6,
06FD,
0244,
11FC,
13B8,
16E1,
00D2,
2238,
0B28,
07EE,
19B2,
18F1,
1662,
1671,
F797,
04D0,
0C79,
01A3,
FD51,
0214,
105C,
0900,
FD53,
0543,
0B6E,
0467,
0EDC,
F9DD,
031B,
0B8A,
0144,
FEB7,
17BD,
15F4,
02FC,
23D2,
1731,
0A4C,
11BB,
0A4D,
10B5,
08A8,
1473,
F771,
08B8,
134C,
041C,
0ADA,
0EF9,
0B4D,
0F4F,
F821,
F21D,
FAEC,
0660,
097D,
090B,
0042,
FB5D,
1649,
1C52,
08B5,
027B,
050F,
07D1,
0745,
0A17,
1CD8,
F38C,
FFCB,
11C1,
2178,
079D,
046D,
0B7A,
04B5,
038A,
0686,
0D8B,
FA7A,
DD11,
E717,
037C,
FEC1,
F974,
F7A1,
F8BD,
044E,
0D1C,
074F,
0FFF,
0504,
1FB0,
13EB,
0D29,
2107,
157D,
0C2B,
0AB4,
07D5,
018F,
0C21,
F534,
FE5C,
02FA,
F8CE,
08D8,
00C2,
FC38,
EF0B,
F068,
05CF,
EE85,
D952,
EA24,
D84F,
D60F,
F669,
F9D4,
FE2E,
0314,
0DDF,
10ED,
1305,
F8F4,
0CCE,
FF38,
0688,
FFBA,
0FD0,
0F61,
EA45,
FBD7,
F80C,
FFDE,
04FC,
0E75,
F2F6,
FF51,
0623,
FE82,
DE06,
D14E,
B28D,
AD1B,
A745,
AEFF,
B82D,
DC27,
D816,
CE6C,
D043,
D12F,
F218,
E8E3,
FE15,
F9F8,
F4AE,
F5A6,
F9AA,
141F,
F3CE,
FFD8,
0282,
EC10,
FECA,
09FE,
05F4,
F785,
DD3C,
CE4A,
B3B8,
A968,
8ED6,
8C34,
A6F3,
8368,
AAFB,
CA10,
D024,
EDDB,
ECCE,
E5BE,
E321,
E436,
01F6,
06E1,
FE41,
0078,
0143,
F380,
F1F1,
012B,
0351,
029E,
FCFA,
F39F,
F7C3,
E739,
E1DD,
E6AB,
D8B5,
C3A7,
DEF3,
D79A,
F2C8,
DAFD,
FBC4,
F7B7,
09ED,
01B5,
025A,
0101,
087E,
E900,
F80C,
08DA,
0368,
0CAB,
07B3,
F5A6,
FDA0,
0730,
FD5B,
0327,
09CA,
F711,
0078,
1504,
1454,
0631,
0BA0,
1AF7,
1311,
17C4,
0E63,
0236,
FE8A,
F1E0,
FC22,
F679,
E8C9,
F793,
FEEA,
F81B,
FA58,
027A,
0489,
FF9C,
FD22,
0952,
F707,
05ED,
0AB9,
FD96,
040A,
0AE5,
057A,
136F,
36C6,
0A04,
119A,
0E37,
0A66,
09F1,
0672,
F051,
0864,
FD2A,
FA13,
022E,
FC56,
01FA,
03A8,
0E7E,
097C,
023C,
FE09,
F133,
EB81,
1336,
0784,
04BF,
02D8,
FEC6,
0E4D,
1D32,
2087,
07A4,
1B1A,
14A3,
0A84,
001C,
FC22,
EFB2,
0CEC,
FF28,
FD9C,
F5FE,
FA25,
FED6,
E66A,
F9F8,
F932,
FF60,
FD6B,
F874,
F9DA,
04F3,
06EB,
F779,
0D23,
0906,
0AD5,
01EA,
1581,
020C,
F103,
02AB,
0DFD,
09F4,
093D,
045F,
EF9B,
FFC1,
F4E0,
014D,
FB2C,
12E8,
00B1,
131E,
122B,
F509,
FA2F,
FE6C,
0B4D,
0530,
0A12,
FCA7,
FB9E,
F8F6,
1C50,
0AB8,
FFF4,
0EA1,
0F8B,
0BDA,
04A9,
FAC5,
0A00,
FCDE,
0A3E,
FFD5,
0224,
02C7,
0B6F,
082C,
0ACA,
037C,
FFA5,
0ABD,
04A9,
0B30,
042D,
FCFC,
FA6E,
0457,
06A8,
F9ED,
FD16,
07DB,
F800,
F90C,
EF0D,
F597,
F7AF,
F41A,
FB12,
0034,
F773,
FFE9,
F598,
E5E7,
FD56,
F9E0,
0A9E,
08B1,
0351,
187D,
05A8,
F484,
F603,
FBF1,
FB42,
0B4A,
FD46,
015D,
08E5,
04E3,
07A4,
1866,
0338,
011B,
058B,
010C,
18F2,
0F5B,
0E36,
FCFA,
F716,
FB0C,
09AD,
FEC9,
121B,
01C0,
0E1B,
0496,
0712,
025A,
F423,
08F3,
0404,
0199,
0235,
0858,
1252,
0A8D,
FBA1,
046D,
FD8C,
083B,
19A4,
2458,
2AE5,
0FA6,
16D6,
076B,
0B05,
0DBC,
1425,
11F9,
026E,
FA25,
003B,
F30F,
FAC6,
F716,
F240,
099B,
FCE6,
F761,
F5F7,
FEE8,
06C2,
0422,
0108,
0643,
0819,
05BD,
0A5D,
0862,
1074,
FEFF,
110E,
185F,
1225,
0564,
0FCF,
16E9,
0C3E,
FF61,
F992,
F836,
F4AE,
FB13,
F8F6,
F845,
F7F5,
F4DB,
F692,
EC9C,
0059,
0E6D,
0E27,
0B22,
1939,
02BF,
07B0,
00AA,
13DC,
141C,
0064,
287C,
1D86,
1303,
17E0,
104F,
F01B,
F177,
EAC0,
FA5C,
F2A7,
FDD8,
F458,
0B1D,
FEE1,
0331,
F7AF,
0044,
0FB6,
13CA,
04A5,
0E30,
09AC,
0253,
0ECA,
1E2C,
1127,
15E7,
1294,
2600,
1A14,
0572,
0B5C,
120F,
0507,
F51E,
F2E3,
F798,
F798,
EEFB,
F865,
FFB2,
047D,
FDC6,
F6C6,
00EB,
0CEF,
02DC,
0D7D,
FF27,
063D,
072B,
0632,
122B,
F864,
094D,
076A,
0F18,
00B7,
F67B,
011B,
F594,
0D11,
F74F,
FF72,
F62E,
F365,
E9ED,
F29B,
FC4B,
F8EB,
06BA,
0367,
0859,
F643,
06E7,
FB9C,
FF77,
0379,
FEB7,
F961,
0363,
05A8,
13F5,
0A28,
11CE,
FEE7,
F069,
FF87,
E6F4,
F929,
EBDC,
FCD4,
027B,
F349,
FC0B,
FA42,
0132,
02C0,
05AA,
FD8F,
0A63,
FE15,
F52E,
FE5D,
0BAF,
1485,
0BBD,
0772,
046B,
081B,
FCB9,
06A7,
FE0B,
0429,
FA0B,
F14F,
F568,
F5BD,
0A65,
FD79,
0DD2,
0775,
F4CB,
F369,
FF13,
0635,
0F50,
02F3,
0C28,
0AEE,
061D,
FCFB,
1374,
0E16,
0996,
FFCD,
0BA5,
0651,
E31D,
E8FD,
EA52,
FE58,
059C,
F088,
0017,
0E31,
0C3F,
FEB5,
05E0,
0AAD,
0562,
F186,
0BFB,
1416,
0CAF,
0EEB,
1F6B,
0A24,
0041,
18E3,
FE9B,
0A79,
FE6D,
10BE,
0478,
068E,
E40F,
E548,
0111,
F1B2,
131D,
0448,
FFCC,
F7D1,
F9DE,
EE8D,
E9AE,
EE67,
02FD,
F645,
FDF0,
17BA,
1109,
056C,
012D,
FE5A,
0D48,
040B,
0AB4,
0AEB,
0E93,
FA1D,
FE69,
0309,
061D,
F5E7,
FF4E,
2729,
01B2,
03DB,
FCCD,
FC7D,
EED7,
F754,
E5BF,
0ED6,
1D0F,
1169,
0768,
175C,
0C7E,
0D8B,
162D,
187A,
0FEB,
16B5,
FAFA,
03F9,
085B,
07BD,
014B,
0F9A,
13ED,
07BD,
0FA3,
0AE1,
01D3,
F713,
0165,
0C5A,
0D47,
0B81,
014F,
0513,
2203,
02C7,
021E,
0D4A,
0A14,
0EA6,
06D4,
103E,
0674,
0CD8,
1426,
0234,
11FB,
F272,
07D1,
09C5,
0494,
0561,
0872,
EDA8,
FE1C,
F303,
19AA,
040B,
0B40,
0E46,
1DDB,
190B,
1B2B,
F89A,
0853,
0277,
F741,
FD3B,
F1F4,
117E,
F9CF,
0B99,
F79F,
F971,
F4C1,
1663,
020E,
04A1,
F9CB,
0AF3,
EC2C,
079B,
FFA6,
075F,
ED69,
FECE,
0AF4,
2672,
22CA,
FE31,
FF9E,
FAF4,
F3D7,
FCBA,
FC0D,
F408,
FB90,
032F,
056E,
FBF6,
EEED,
0F7F,
1BE6,
FC66,
F854,
E99A,
07C9,
1132,
03AB,
0B0A,
165D,
1185,
0EE7,
1D7F,
0F7D,
159B,
014D,
0E00,
13C0,
08CA,
F4E4,
FC9B,
015B,
0E8E,
EFB5,
16B6,
0BA8,
F74F,
091A,
ED39,
083F,
F70C,
05A5,
F1B1,
FF52,
0FF3,
1D90,
0DB5,
183C,
0897,
1CB4,
2609,
13D7,
099B,
15BF,
2AAE,
1783,
0B3E,
F0FB,
FE20,
0DD0,
0060,
FD75,
0199,
FBEF,
0635,
0D6D,
0A36,
0494,
EFCE,
FE67,
0554,
F367,
FD7E,
2047,
13F1,
1227,
2126,
1498,
073F,
1497,
195E,
1E51,
3E33,
11AB,
FC3C,
0A51,
0AD8,
142A,
FAEA,
09B5,
08B5,
0930,
0F8D,
064B,
11B2,
0DBD,
0ADF,
E2F1,
0342,
07E7,
F1D5,
FB51,
1275,
05F2,
0E81,
FE85,
050B,
FD05,
26E1,
249D,
291A,
1E6D,
108F,
F8D2,
FF70,
12BC,
1C8F,
0DBC,
0B2A,
059D,
1736,
0AD4,
01EB,
F168,
F99C,
076D,
1C7D,
FFD2,
EBC5,
F6D7,
1CF9,
074A,
17AE,
0FAD,
068A,
0321,
10A0,
17C3,
1B6D,
22CA,
057C,
08E6,
0DAB,
0870,
07C9,
068B,
0981,
1222,
111B,
0D52,
022F,
06B7,
1C01,
201C,
0E36,
FE35,
02BB,
EB05,
EDF2,
F8CF,
00DE,
10D4,
F889,
0ACE,
05AC,
0A70,
1C97,
1D84,
0152,
FAEC,
0B15,
F98D,
1412,
F33D,
17B0,
F9E9,
F2EC,
044F,
F32D,
0EB7,
F5EF,
1F91,
E873,
F0C4,
F925,
F1C1,
078B,
0BC6,
0503,
F4D3,
20DB,
F977,
0F18,
06BB,
0E80,
01D6,
0942,
F789,
09A4,
1910,
0608,
001F,
0844,
0222,
F904,
0298,
027E,
0A05,
0BE0,
FA5D,
EFE2,
078A,
19EE,
0584,
F142,
E355,
FB57,
0823,
0CAC,
045D,
F11C,
05D7,
0EAD,
033C,
05A8,
FA32,
042D,
1322,
F71C,
FEDD,
FF04,
03ED,
03D8,
F0DF,
0238,
FBD7,
1645,
03DF,
F7E3,
0B11,
1AAB,
0162,
21A9,
FB09,
0890,
FE38,
00A2,
015E,
0779,
01D8,
0DD1,
078E,
014E,
0435,
FDEA,
1445,
FD84,
FCBE,
FC82,
0244,
0123,
F1AF,
0705,
FC02,
034A,
0479,
EC20,
0257,
1077,
FA50,
FF36,
FD62,
0697,
F50B,
0071,
0E0F,
049F,
122F,
0824,
0DD4,
FDCB,
0A39,
FA30,
0BE5,
1090,
0A27,
0BFF,
FB35,
0560,
0408,
0C65,
F4C5,
FF25,
F7F9,
0605,
126F,
FACC,
F11F,
FD85,
23B4,
0541,
FF3A,
0F22,
0854,
03B1,
10BB,
0F91,
0978,
0277,
F5E6,
0921,
FBF2,
0E07,
FB17,
F300,
0810,
0B74,
FD8D,
ED86,
11B6,
0B6F,
1216,
1A2F,
1339,
0156,
143A,
1BC7,
096C,
11AA,
1359,
099C,
FCE2,
02FD,
F9B1,
055E,
0F08,
12D8,
F8A7,
FCB4,
0003,
F200,
F1CA,
F02E,
F581,
12E2,
0C2D,
0920,
1A8F,
1923,
129C,
FF47,
0AC7,
10F1,
EACA,
0D4C,
038D,
0603,
0B1E,
F109,
0673,
FD89,
0196,
1073,
11B0,
04C3,
00E1,
00B0,
0158,
0137,
0433,
0340,
06B4,
15DF,
18C5,
0C33,
02A2,
FE87,
FE78,
09CD,
0AFD,
0C99,
0D35,
0D08,
1329,
0B6F,
00C8,
080F,
F8E1,
001E,
044F,
05BC,
0782,
F131,
FB8A,
0B9B,
025E,
F5D3,
06D9,
FE87,
1352,
0FBC,
14E9,
16FC,
FBDC,
0941,
10A5,
0B43,
08AF,
1034,
107B,
FD1C,
04D1,
08DA,
F5B6,
F993,
F5FE,
FFA8,
F9D8,
FDDC,
0099,
F3A1,
F7DE,
FEFC,
FA65,
0209,
FD5E,
FF9D,
F9A2,
1062,
06B7,
0F16,
0C3F,
0BA3,
FBFB,
01D0,
F6E7,
03A7,
FACD,
F5A7,
06D1,
08AE,
06EA,
0221,
06CD,
F732,
F8CF,
F874,
FD15,
FCE7,
F6E4,
F4A7,
EAA5,
FCC9,
F21D,
F70A,
EF31,
F4AE,
0AA6,
FE40,
FC4A,
F319,
0421,
0D3B,
0DDD,
0ACD,
0095,
F6CF,
F929,
EFF2,
F81E,
F653,
08F5,
FC15,
F477,
FD10,
F94A,
00FB,
F2E6,
FA6B,
EE59,
F620,
FA33,
ED14,
EA3F,
F28B,
FB08,
0669,
02ED,
FD43,
0127,
0B42,
FE51,
FA54,
F8A5,
0214,
FC35,
FF89,
0483,
0AF0,
0B73,
FDE5,
F727,
094D,
FFB8,
F7D0,
018A,
F6DC,
F3AD,
EE98,
ED10,
F05A,
F1DF,
0A0D,
0542,
F0B1,
E47A,
F17F,
FDAE,
FEC8,
FA6B,
FE71,
0D3A,
FB17,
00F1,
E9D5,
0DEC,
0D10,
04B5,
0D11,
FA9F,
0C11,
FB0D,
02A7,
FFA5,
F738,
05BA,
FB3A,
005A,
EACB,
EE22,
F5DB,
0695,
FF1D,
F9AF,
F785,
F3BD,
FC18,
F609,
0A05,
092B,
1A84,
FDCA,
01D5,
0033,
FECA,
0C2E,
080F,
0CB1,
0267,
FCF7,
02A6,
F9BA,
03B5,
0906,
FAE7,
FBA4,
F168,
F419,
E998,
070D,
06AB,
056B,
F3A4,
ED80,
0715,
0676,
01AA,
01AA,
F460,
0936,
018C,
0218,
FAFB,
FB6A,
0347,
0A7C,
0771,
0775,
102C,
0B18,
FEE8,
FC3C,
F78C,
05AC,
F323,
FE9E,
F2E3,
E677,
EDD6,
F6C5,
F62B,
E559,
FC6A,
F299,
0962,
F0F8,
F268,
FC37,
076B,
0451,
0FED,
0BAB,
0EFB,
F87A,
03B9,
0BBF,
020E,
08A6,
0D77,
F909,
F373,
065B,
F0D6,
FDC4,
F494,
E2A8,
F7B4,
E749,
F423,
0292,
F248,
F19A,
15F2,
F69A,
F3B3,
F5A0,
007C,
E917,
F1A5,
FCF2,
060F,
FB6C,
0CC9,
154A,
1C26,
109F,
111D,
064F,
FDB4,
FE37,
079E,
060C,
0482,
F31A,
FBD1,
031B,
F5BA,
000A,
D345,
E671,
E272,
FBFE,
0569,
0CA9,
E5D2,
0E48,
0683,
1BE9,
16DA,
11E4,
0C90,
0AAF,
1672,
00FC,
09D8,
F554,
070D,
06BA,
0B3A,
0708,
F8F5,
F702,
F971,
FC05,
F02B,
FA89,
FD05,
F5E1,
E9B9,
D3D1,
F1E0,
F916,
074D,
03BA,
0508,
12D4,
1C99,
0DE8,
1087,
1596,
246B,
0044,
07F3,
F2C3,
1545,
15BF,
06AF,
E91F,
1676,
0A62,
08A4,
0694,
FFAA,
0DA9,
F528,
FEE0,
CDEB,
AC9F,
ED7F,
11EB,
10B3,
19EA,
17AE,
223C,
1505,
10F2,
0D10,
008D,
21EA,
04BD,
0225,
07CE,
028B,
17D1,
1593,
0146,
252E,
0761,
0E50,
1A67,
18B9,
1751,
1895,
E9AD,
BF88,
9B58,
DB6E,
0E77,
1504,
1250,
12E7,
FB67,
10C9,
0005,
0721,
0790,
2030,
FD67,
06D5,
1090,
0E29,
FF04,
1D6E,
01AB,
0FEB,
0B82,
0ACA,
1D20,
24C9,
1642,
3C4A,
E58B,
ACA8,
A96A,
DC30,
243A,
2715,
11E1,
1055,
099E,
0EF4,
0CF1,
F7EC,
FD37,
1B9E,
FCDB,
0C87,
1550,
0D3F,
FFFC,
FCE8,
0D4D,
088B,
0401,
2AF6,
130D,
05A6,
2E59,
2D59,
0441,
A30A,
8E84,
E0C0,
270D,
07F9,
038A,
0AD9,
0ADC,
F0EE,
0473,
FF6F,
09AC,
1710,
08D1,
057B,
F5D7,
0030,
DABD,
F7C9,
06CB,
0F74,
114F,
0CDD,
0EBC,
0F91,
1FD5,
1C77,
DD3C,
B770,
9106,
EF91,
0D5F,
FDF2,
0300,
FE1F,
F94F,
F592,
0EAF,
ECC0,
FD18,
0F7F,
0DC1,
0387,
0905,
F61A,
DDE3,
06EF,
F40E,
0575,
F0DA,
08D1,
013F,
0005,
1A36,
0201,
C735,
B0E1,
CD3A,
EF78,
1F82,
069B,
084C,
0040,
0DA4,
FB4C,
05F7,
E5B2,
F30C,
0EA4,
0591,
0ABF,
F81F,
F102,
F401,
043E,
0468,
035A,
F62B,
F225,
FF25,
0604,
F952,
F079,
A9AD,
D31E,
E69A,
0536,
FEFC,
01BA,
0EC3,
EE52,
ED0A,
01E6,
F85F,
F6CC,
FD59,
0C25,
07DB,
0183,
EED7,
079D,
08C4,
02F1,
F93B,
F858,
08AD,
F843,
FB81,
0258,
F1E8,
EC53,
E51F,
D175,
E563,
F97E,
07B5,
1318,
0F80,
049F,
1816,
00F8,
00BC,
F289,
FE5A,
03DE,
0977,
07BD,
00D5,
ED14,
1664,
FF44,
0139,
F8A5,
0E1D,
05AB,
0940,
FC80,
E376,
FFD2,
E5B6,
F38E,
FD09,
035F,
0899,
00CF,
07B2,
1BD2,
0088,
1531,
FE50,
FB76,
0858,
135B,
0735,
FE63,
0405,
F2EB,
0636,
0A49,
000D,
EDDF,
0B6F,
06B6,
002E,
EEBB,
058F,
FC3A,
FF2E,
EE51,
EE68,
EF1E,
0C65,
F973,
FCF3,
076C,
EBA6,
F66E,
F81C,
0991,
05DA,
0A38,
02D1,
0F33,
02AD,
FE51,
FCF1,
042F,
F98A,
F649,
0056,
F415,
0380,
FF68,
EA02,
FC01,
DE15,
F11C,
058B,
F37E,
F901,
1058,
EF70,
039F,
F224,
F20B,
FE4B,
01E7,
FF67,
0F52,
006F,
08A6,
0781,
06FE,
12C8,
0082,
FD75,
FA3E,
E976,
F2EC,
F642,
059F,
FA45,
102F,
04A9,
F5A6,
F90D,
FD72,
F88C,
F9F8,
0843,
F85D,
0143,
FA32,
FEFF,
0319,
0214,
01D8,
FADC,
F5F5,
FAC1,
FB26,
ECA1,
034E,
F3C6,
054C,
06A5,
01FB,
10BF,
F457,
FC43,
FC64,
0156,
0424,
FACF,
F412,
05BA,
00CA,
FE11,
031C,
FD5A,
F8CC,
F7C0,
FEDF,
F7DC,
F0B8,
049F,
F770,
0161,
00BB,
F7F3,
F0C9,
F560,
EA7A,
FE78,
FB48,
0F30,
FFE2,
FC06,
076E,
01BC,
003C,
0A26,
0B0F,
FD28,
05C0,
F33D,
0051,
1438,
FF66,
EDDA,
E97B,
EF6E,
0047,
FF27,
04BD,
F751,
053C,
F77A,
EEA3,
EE1C,
F435,
F804,
FD5F,
14D4,
F260,
F0C5,
F19A,
FE74,
FC0B,
17D1,
FC90,
04EE,
FADA,
F0E5,
F3EE,
0CB2,
0565,
F694,
E034,
E8B7,
FB4A,
04EB,
F60A,
0699,
0070,
F711,
ED68,
E92C,
FE6A,
FE92,
083D,
09E3,
FE2B,
07AB,
FA6D,
1015,
FDF2,
FAF6,
FC5B,
FC6C,
026F,
F6BB,
F785,
06A9,
EEC9,
F476,
E76D,
F613,
FB56,
01EC,
0296,
05A9,
F489,
F204,
F38B,
F164,
F290,
FB7F,
019D,
0D70,
0CE2,
FFAF,
0385,
009D,
0281,
053F,
0C69,
0D9A,
0114,
F3B4,
F690,
FE92,
F93C,
FCE8,
F1A7,
FD9F,
01FC,
02CC,
F425,
093B,
0350,
01CC,
F21D,
EDC7,
F6EF,
FB88,
0A1E,
0B10,
068D,
00DD,
0B5F,
0AF9,
0A10,
094E,
002B,
0A71,
FD63,
01F5,
0D77,
FB12,
01E6,
0B0D,
FB4F,
07E7,
03EC,
0220,
F91D,
F8A4,
F4C1,
0664,
06AA,
FA5C,
0256,
F815,
F157,
F7B3,
110B,
0A97,
080C,
1F0E,
1765,
1397,
06D4,
FE0D,
069C,
FF2F,
F8AA,
FBAB,
0A78,
F878,
F93D,
06B5,
FBB7,
032A,
0B4C,
FDC2,
F8D9,
FE7F,
0C03,
0A1C,
00F3,
EB7D,
E8CE,
F021,
03D9,
0D80,
1E90,
1C6C,
2178,
1F78,
08CE,
11DA,
217B,
0C2A,
0D97,
00EE,
0DE4,
FE45,
FFDC,
0180,
0A70,
0781,
F94F,
01D0,
0F16,
01A8,
07AC,
202E,
0FB9,
F5CB,
EE9D,
0315,
F9B1,
FCFA,
EEE7,
0D4A,
FA19,
2676,
252C,
280C,
26B9,
3557,
2A06,
107F,
1944,
18AC,
0724,
0FF4,
0CB7,
09AE,
FF36,
148D,
18BC,
0FE7,
0FBD,
23E2,
17B9,
11B2,
0A7E,
026B,
F08A,
EEDB,
E9B2,
E4C7,
E35E,
EA10,
FE6A,
FDD7,
0556,
0EB7,
0D5A,
10C7,
3138,
1B87,
171C,
0AD5,
FEA5,
00B2,
0528,
10CA,
2648,
288F,
2FC7,
142A,
2077,
122A,
0AD5,
0DC9,
06A9,
0842,
E029,
D69B,
CDB6,
D7D4,
DD83,
F405,
EC62,
0317,
00AB,
0810,
1A62,
08B1,
1848,
1585,
151C,
02D8,
0B5B,
19D6,
210B,
2781,
1F61,
1AC9,
2DB5,
1A06,
154E,
2247,
24DD,
1BCD,
1CAC,
02AD,
F47A,
F22B,
EBC1,
E23D,
F2D2,
F456,
FBB5,
FA8E,
0869,
0FB4,
19B4,
0EB1,
1483,
0598,
1D94,
216B,
1CCF,
2CC3,
18AA,
1CCB,
138B,
0F20,
2958,
2552,
25BB,
2F9E,
2A21,
2402,
2CAA,
1F67,
2039,
380E,
1582,
1133,
0901,
0B3B,
0EF3,
156B,
1747,
0885,
1088,
FE1A,
FE3C,
0E0E,
222A,
1966,
1B22,
221C,
18A1,
0F56,
24F0,
199F,
3268,
3280,
3CFB,
36CB,
4380,
422E,
2287,
1DFB,
09E3,
FF46,
FE54,
FD2C,
F168,
0F46,
1B91,
0F9F,
01ED,
0BD7,
FE80,
FE27,
0373,
0592,
188E,
0A49,
0E85,
1212,
02FC,
15BF,
0CAC,
284D,
2D18,
43E2,
2D05,
32F5,
18EF,
157D,
161C,
15A7,
0F79,
0577,
F725,
0E2C,
0776,
18D4,
0679,
F84D,
0031,
F993,
EC28,
06F4,
FB35,
E941,
F209,
ED78,
EC3C,
E956,
D6AA,
DA48,
EF18,
EA29,
E7A9,
E1E3,
F935,
0042,
FD8E,
0CDB,
1329,
1083,
1620,
022B,
1907,
115C,
FD5D,
FA9C,
F82F,
E508,
EAF2,
E46A,
FD4B,
F400,
F789,
DE5C,
E812,
E7AE,
C6A7,
D617,
C70D,
C1C2,
C8DC,
DE7F,
ED07,
08ED,
FB1C,
07C9,
0313,
F4EF,
0E14,
00E0,
04FB,
0AF2,
FD10,
F94E,
EDF6,
EE96,
E115,
EBC3,
E1E7,
F1E5,
FAA8,
EE56,
F422,
EE69,
F5CE,
EAE5,
EC4D,
D9CD,
E9F7,
FE47,
05CD,
0491,
0675,
F51E,
0443,
02C5,
0899,
017D,
0171,
0B27,
F36B,
F815,
F8B6,
F979,
F78A,
FD8E,
F43C,
EF10,
F4EB,
FB1A,
0A59,
EEA6,
0B48,
F4AD,
FE32,
F440,
F71A,
FCD7,
F297,
F849,
F8F4,
03CC,
0D61,
F665,
02D1,
FCBD,
F88D,
FDF2,
0845,
F0E7,
EC61,
F3C4,
E9B1,
F38F,
FC23,
FE2F,
F86C,
FE5C,
FAD9,
079D,
F8BD,
016D,
F29C,
05CF,
01C9,
FAE2,
F47C,
07E4,
1060,
FA98,
031A,
F534,
F6D3,
019F,
035B,
1667,
0ADD,
E95D,
FF81,
F03B,
FC1D,
F1D3,
FB94,
ED27,
03EF,
F5F5,
EBCA,
F827,
F795,
0BB8,
F6DF,
00F1,
026D,
F6F2,
FA6B,
F420,
F63D,
F17B,
00F0,
02CB,
F933,
00EB,
FF83,
1266,
030B,
FD2B,
F8B0,
FC0D,
0380,
129F,
ED82,
F9A6,
0353,
0041,
00BD,
FB7C,
F983,
04EF,
EF2E,
0178,
FB46,
039A,
FD21,
F67E,
F1BC,
FC0E,
FA20,
0DDC,
E51E,
FC0D,
F89B,
F708,
FF88,
FC6F,
0AD9,
0505,
F7C8,
F030,
F104,
F19E,
F3A8,
F2A3,
036D,
F9BE,
FB88,
0113,
048A,
F7E9,
011C,
F584,
F3DF,
F9E2,
FB5F,
EFC0,
02B4,
0DEB,
0097,
FE00,
FB86,
F53B,
017E,
FAB1,
0379,
FE35,
F163,
F1D0,
F8F0,
F15E,
F9CB,
0F14,
FBDC,
FD6A,
FCAE,
FFE0,
0433,
FB58,
05D3,
F0C0,
F9BE,
F29E,
F3F8,
F47A,
0A19,
F991,
FBC4,
002F,
06ED,
0677,
0235,
FE95,
037E,
013B,
039C,
F3F6,
0555,
FD94,
FF8D,
08A9,
EC83,
0045,
037C,
F6E5,
0232,
ED80,
F71A,
FC15,
00A2,
F891,
0D0E,
F075,
0510,
1198,
F8B7,
09FC,
0C5E,
0B2B,
FB35,
F614,
FA66,
09CA,
0B4B,
0659,
1205,
03FC,
0311,
0A62,
F804,
077D,
FC91,
F245,
0821,
F694,
F4F7,
0377,
FDE8,
0ECE,
03D9,
0963,
0162,
0DFE,
1A7C,
0151,
07EC,
0623,
02B5,
FAA4,
F8C0,
0B18,
0DBF,
1BAA,
1D6D,
0CAC,
0697,
03F7,
01D1,
00E3,
FAFD,
0469,
EFF0,
F802,
0E02,
0CD4,
FDA6,
EF0A,
F88C,
0026,
07BA,
F4EE,
0E36,
14D0,
0619,
F66E,
040E,
FB2A,
0699,
0548,
0E53,
FE3D,
034B,
0C8C,
06FB,
00CE,
0995,
0DDD,
0AAA,
11DE,
0392,
0A74,
F142,
F9B1,
01DD,
00C2,
071A,
F806,
F87F,
00B3,
FD93,
0731,
0F78,
FE5B,
F41F,
FB81,
07BE,
0B69,
FEB2,
EF9E,
F3AC,
057C,
0742,
F9C6,
0476,
FC04,
F5F1,
0CA9,
06BB,
F7BF,
08C2,
1803,
0A4B,
FDD2,
FF31,
FE9B,
06D5,
0C86,
FE22,
0C27,
0DAD,
F3D6,
03F3,
02EF,
0DCF,
09E7,
FA9D,
0CE7,
062D,
0940,
0D04,
0F59,
08A4,
02AF,
01BE,
F536,
EAB7,
10D3,
FA8C,
0432,
08F7,
0C46,
F6EE,
0462,
FF53,
0A62,
0594,
FC59,
F8D0,
FA9E,
FB1E,
FEEE,
FDC7,
F774,
0BDD,
FDA3,
FE3C,
0A71,
028C,
FEEC,
F179,
F4CF,
131C,
0FF3,
0B83,
FF3F,
11A8,
06B3,
F214,
0B8B,
03BC,
FF6B,
179D,
0908,
0499,
0208,
FAB9,
01F8,
FD62,
FDBB,
079A,
03E0,
00E9,
005F,
FCDC,
FB0C,
FF19,
0D8F,
1398,
0E58,
0FD4,
0FFC,
2006,
0580,
177B,
08E4,
117C,
1510,
0061,
0012,
09F1,
08EC,
0C54,
058D,
040F,
023B,
0B09,
0763,
0800,
FED5,
034D,
FB1C,
FB26,
F2B3,
F713,
F7B3,
FE84,
008D,
F3F6,
E95A,
F798,
0F08,
EA2F,
FABF,
02DE,
F282,
F9F7,
F744,
06EB,
02A3,
0012,
FD00,
0A31,
F73D,
0712,
04CE,
F77B,
013B,
00A1,
FBF6,
F1CD,
F3FF,
EDD8,
EEED,
FAE2,
ED4B,
EB15,
EFD2,
F1C9,
F9B9,
02AE,
E861,
EADE,
E1D4,
F3FA,
01B2,
067B,
0D87,
F701,
0CF2,
FE1B,
0165,
F96F,
02A9,
FF19,
FFEA,
07F6,
0E3D,
03E8,
F9D2,
FC5F,
FB1C,
FA09,
F03B,
01ED,
FBA1,
F5BF,
0B37,
0279,
059D,
0279,
06BD,
0395,
01CA,
FF56,
FEFC,
F93F,
037B,
FEAF,
0654,
02ED,
065F,
00C5,
FF44,
0A1F,
FAE1,
FB27,
F6B0,
18F8,
0E1A,
FA79,
0B04,
0522,
FBB6,
F01A,
FF79,
00F9,
F744,
FDF0,
02EB,
F835,
03D8,
0CFD,
FF97,
F96F,
F4D9,
F8B0,
08E1,
07C4,
024A,
07AB,
0A30,
0947,
F9B4,
F997,
0AB1,
1DE3,
0432,
0274,
0755,
F898,
024B,
087E,
06BD,
F9CA,
0F28,
04DC,
090D,
F170,
F12F,
FD2C,
03D1,
08D9,
00F5,
05B7,
FBDF,
0607,
F705,
043B,
FEC3,
01DC,
03DD,
F7AF,
169E,
08F2,
FD27,
013E,
1326,
0AFD,
044E,
00DF,
F5FB,
FB86,
05CA,
0A4C,
0477,
FC07,
0296,
022A,
F974,
FA0B,
08CB,
F8FB,
0749,
0164,
FBDD,
F5EA,
FEAE,
F4CB,
F3DE,
ED7D,
0D18,
0EA3,
0C24,
02BD,
0ED2,
074C,
0088,
0428,
180A,
FCC3,
F9C9,
0AE8,
EEAA,
F7D3,
EA99,
03AD,
EA94,
F776,
15DB,
FF0E,
0A7A,
F597,
F8C5,
0065,
0000,
F710,
F82A,
E59F,
EA6D,
0043,
FD7D,
06FF,
FBC2,
FB63,
103B,
EDB5,
FC62,
06F3,
0D0F,
1053,
08B3,
0F96,
058C,
08E6,
0B69,
109C,
16FF,
1073,
0D68,
0102,
F59C,
0179,
FB27,
FCA8,
FC3B,
0105,
FDF6,
0219,
E792,
0A85,
ED0F,
F747,
0CFD,
F5B7,
FF8A,
F7A0,
F72E,
F9AB,
F2C3,
0224,
F9FD,
FDAB,
0A8B,
09DC,
229F,
0F1B,
0E60,
06A1,
EEFF,
FBB8,
FEE1,
FDAB,
0212,
14A8,
07D7,
FC14,
1A9A,
F73D,
0542,
0064,
F54E,
FAC0,
F8A4,
EAD9,
029C,
FD50,
FCCC,
FD6E,
FD51,
042B,
1389,
F261,
227C,
1B22,
0AE8,
0932,
FF52,
0332,
FE64,
0396,
06EE,
F0B4,
F6C7,
0F0F,
FB4A,
05F5,
FAF1,
0C81,
F61A,
EF02,
FDA6,
F6CD,
0373,
F8CA,
F5A9,
0C8D,
02A1,
01A3,
0AD0,
15D8,
1EFA,
1594,
F6C3,
0495,
038F,
FB7D,
066B,
060E,
EB41,
0582,
F522,
0998,
F971,
0B4D,
F26B,
FC17,
FBC2,
EA10,
FE9B,
DFEA,
FD22,
1390,
0FF2,
14BF,
1D88,
09F7,
2BB8,
2AB5,
1DDE,
2294,
FE62,
02FD,
F28B,
0C0C,
11EF,
11B2,
067E,
0481,
0B97,
055E,
F56D,
07C1,
F636,
080A,
FB00,
F801,
E6F9,
E780,
F054,
F790,
0591,
0D28,
1DFC,
1947,
2866,
0ED3,
F3BF,
FC97,
EDFD,
F288,
F5FB,
06B4,
0D81,
09EE,
FCFB,
00A4,
F3B1,
FEC0,
F37D,
0BBA,
0670,
02DF,
1CC2,
F884,
FD63,
F416,
ED95,
D756,
EF17,
E887,
EE28,
DD40,
CAA4,
D250,
CE0D,
C8A6,
D292,
D7DA,
F241,
0046,
04A1,
EDC7,
FE63,
F989,
E9C3,
07B9,
061D,
F3EA,
FCC6,
091F,
03E7,
FFAD,
077B,
FB45,
FDF2,
F36C,
E3B5,
CB83,
AF9C,
B1F9,
A62A,
B7B6,
C19B,
BEEB,
DA50,
DD40,
0076,
0830,
F5AE,
F78B,
FE4E,
FFAD,
FD00,
F3DF,
0864,
0C54,
0464,
FB51,
18C6,
0E5B,
1DA9,
1069,
FE66,
FBDE,
EB89,
EA09,
D61D,
B1A4,
C5D9,
B1FB,
B8BE,
C316,
CE9A,
D65E,
EF19,
08CF,
F64D,
F25F,
FEA4,
10B4,
FD41,
09E9,
F7B8,
01C2,
0273,
08F6,
04CA,
F67D,
0914,
11A1,
FE06,
F7C8,
0068,
ECAA,
EBD2,
E355,
D987,
CF52,
C4CD,
C407,
CFBE,
DD41,
F582,
0129,
FBCD,
180D,
F235,
156E,
055C,
0020,
FF3A,
02D5,
FBFE,
0B46,
0475,
08FF,
1B04,
F5B0,
1508,
124D,
0F43,
0F29,
0EC3,
299D,
17C2,
046E,
F49A,
F381,
E526,
F57B,
F0F1,
0826,
ED01,
0858,
FD67,
00E4,
0757,
FA09,
0C0C,
0230,
01C0,
0AF0,
00C1,
0932,
044F,
21DF,
1442,
0BED,
0BE8,
275B,
0FEF,
2D7F,
340F,
3261,
07F6,
0287,
FFB3,
FBB1,
F846,
F12B,
0558,
FDE9,
0718,
F829,
F6E4,
061D,
FC3A,
FCDB,
03AB,
0C27,
FEDA,
0911,
F87E,
F8D9,
2393,
08AB,
21B5,
1D98,
191F,
138F,
0A07,
0C24,
277F,
1616,
0ABD,
1388,
EF27,
F635,
FC59,
0198,
182E,
0D50,
FCD6,
1914,
F720,
0418,
099B,
037D,
08FB,
0410,
177B,
F972,
1988,
1378,
0B72,
11DD,
23B9,
1339,
0FB9,
3473,
3A2D,
266D,
2006,
0AC3,
EE82,
F044,
F771,
FF53,
0DFB,
096F,
00A4,
02A3,
FD37,
0D3C,
0C96,
0697,
0083,
FDBA,
F3EB,
04AE,
FEBE,
00F3,
0CAB,
1E80,
0374,
11CA,
1194,
058B,
2C51,
3AED,
27DA,
164E,
F7F1,
F30B,
FAF8,
F20F,
F55C,
FE02,
042A,
085D,
04BC,
03B7,
0389,
FAD7,
FB08,
01E6,
FC07,
F83D,
F2B7,
F583,
0B7C,
F212,
095B,
0791,
F559,
0853,
0B72,
276A,
2731,
13A9,
F221,
F262,
EE23,
F4CF,
02EB,
0872,
EBBD,
FE33,
F669,
0B31,
FB86,
FB64,
1606,
02C2,
069E,
04AC,
01A1,
01DD,
FA55,
F842,
0B3A,
0CF7,
F855,
26C5,
FA28,
1FBD,
12D9,
1E39,
F41A,
FF50,
F1AE,
EDAD,
F137,
E9ED,
DD42,
F4FD,
FD45,
07A2,
027C,
0477,
0BB2,
08C4,
F885,
FF54,
F3AC,
02AC,
F60D,
035D,
0063,
F7CB,
F3E7,
F46E,
FF12,
FD8D,
1847,
0FF9,
034A,
FB68,
EF86,
EE39,
02E9,
EF8B,
F2AB,
EE26,
0969,
000F,
FB00,
FDBC,
FC90,
F875,
0E4A,
002C,
10C8,
F5A5,
FDF6,
0435,
0520,
F208,
EF97,
05D1,
01E4,
0F58,
0457,
07A8,
FB34,
F5F9,
FEC5,
F6BF,
EF32,
FB51,
EBB2,
E7E9,
FA17,
04FC,
FE02,
0C86,
0461,
E1E8,
0D53,
11C8,
0DE0,
EF9F,
0200,
FBC4,
EC6F,
F88F,
EA1E,
F2C4,
09AE,
FFA2,
15FD,
16A7,
008D,
0349,
0581,
EF95,
F932,
F33B,
EE7D,
E690,
EC35,
EE46,
F458,
F934,
FA62,
F7DA,
EB93,
DF8E,
E7E3,
E97F,
D106,
DB6B,
DD9E,
EDD5,
04B5,
FC7E,
0DC1,
FCE0,
09C9,
11BC,
FFCB,
F3BD,
065B,
0530,
FE01,
F1EC,
EF65,
F10D,
EF3E,
EDC7,
F6FC,
F4E5,
12C7,
FA93,
F1F3,
F17B,
FBDE,
F81F,
FBAC,
DE50,
E2EC,
F914,
00ED,
0511,
FF32,
F41B,
FE94,
0D80,
01E8,
FB0D,
0028,
00B0,
FFA0,
EFF0,
EB5E,
F842,
F00F,
F507,
FBAA,
FFD2,
FA36,
EB82,
EF9F,
06EE,
10A7,
0ED4,
EACB,
E9C6,
F0A5,
F055,
EA8C,
0259,
04C8,
EF75,
FB22,
04AC,
F708,
04A5,
FA85,
FD8D,
07B0,
06B8,
F47A,
F77F,
F8D5,
F7CA,
F001,
F37C,
ED11,
FF96,
00D4,
F8A9,
EBFB,
F800,
F717,
04F9,
0846,
053B,
0A61,
0566,
F91D,
03AC,
0362,
FC73,
09F6,
FE4E,
05D8,
F84D,
FCE0,
F625,
FA44,
FCFB,
F110,
F026,
FCD7,
EF88,
F4FF,
F5EA,
F739,
F315,
F471,
F6FA,
F219,
FE3C,
FB65,
096A,
0748,
09F4,
FC71,
0373,
FA02,
08C7,
0861,
0437,
F80A,
098A,
02D6,
FD1D,
06E8,
FB9F,
0230,
E6B8,
F5C0,
F42E,
F665,
F31D,
F718,
ECB8,
FA3F,
EC9E,
FD8F,
EBFF,
F9A4,
FDAC,
FE7C,
FBCB,
0793,
F5F8,
FA6B,
FDB5,
FF9C,
06AA,
F88F,
FF73,
000C,
0243,
FA32,
FF3B,
FAF6,
E7D9,
E669,
EDEA,
F871,
E957,
EF71,
F13A,
F4CD,
E599,
F09C,
F515,
FACD,
E80D,
FB97,
FCE9,
0265,
F8ED,
F719,
093A,
FFD4,
018D,
F857,
087E,
09CD,
0222,
08E7,
025B,
EB8B,
F408,
0BF4,
F273,
E683,
F1CA,
FC62,
E99E,
F05B,
F6E6,
FFD8,
F173,
F2E4,
F5B0,
08F7,
0DE1,
0D3D,
0B65,
F846,
FFD0,
040E,
027B,
F2E0,
F44A,
00F4,
0068,
06F5,
FCF5,
E98F,
F06D,
01C0,
1862,
FA0D,
02D2,
EDB3,
FB14,
F1C0,
FBEE,
00E4,
ED88,
0607,
FCC0,
02D6,
1272,
F72E,
FFC6,
099B,
FF8E,
F230,
FCA0,
EC99,
FCA9,
F7F7,
F88E,
F878,
0657,
F411,
0848,
F3FC,
F444,
0369,
F0B0,
0DF3,
00F9,
EF05,
F840,
0788,
FC26,
FCA4,
FA29,
F48C,
FA7D,
0F86,
17CA,
FD73,
FB7B,
FFED,
F535,
00B1,
E7E6,
ED38,
0BD3,
F706,
F7C9,
FCE7,
F19D,
01F1,
08C5,
FDCD,
F3FC,
F083,
F795,
01EA,
FC0E,
F716,
0520,
E92B,
F808,
0303,
046B,
FD20,
040E,
0748,
06BC,
FC37,
F763,
EAE8,
FF03,
FF52,
FCC8,
12B7,
F73C,
004B,
049E,
F557,
F447,
FCFC,
F53C,
0605,
F654,
F2B2,
FEC0,
EA94,
055B,
F8C8,
0362,
016C,
1707,
0B5D,
06DC,
FF71,
F95D,
FA45,
01E7,
F56E,
FD11,
F8CD,
FF51,
F49A,
F349,
E52A,
F953,
FDA7,
FE27,
F10D,
FC79,
EB63,
F109,
0812,
F845,
1C99,
F813,
0E52,
03C1,
0668,
FB92,
0269,
011E,
F79D,
F593,
03CE,
0561,
FDE9,
EDA1,
F8B9,
01B8,
F47B,
FFBB,
0679,
0953,
FFF7,
F9A8,
03A7,
F134,
08D9,
FA82,
00C6,
02BF,
F7FB,
FBD6,
0CA3,
0A7A,
F882,
F466,
12E5,
0161,
F1BC,
E791,
0551,
0024,
F81F,
E15E,
FBED,
FD5E,
FB1A,
FE77,
F8DB,
FDF0,
01C1,
FDD5,
F8E5,
FF53,
F036,
F8CD,
F9C0,
F82D,
0853,
F2B0,
00CE,
F0BF,
FE15,
F7A6,
FBCB,
F595,
EE7A,
F7D5,
078A,
081E,
0528,
EB52,
F9E6,
F7BF,
03E1,
FFFA,
EABF,
0FE4,
FE20,
F6D2,
F2B3,
EC85,
E014,
F83A,
F9FF,
F1A5,
F23F,
EE58,
153A,
026B,
F0D8,
FD24,
F67B,
FD63,
0234,
FEC5,
1652,
16B9,
024B,
F614,
FB0F,
F2C9,
F201,
026E,
FCBF,
0579,
0523,
F021,
E137,
F502,
00D1,
F719,
E8DE,
FCC8,
F33C,
EE8C,
F0A3,
08A5,
F656,
E2C5,
ED0B,
F8D1,
FD12,
FAFD,
1BA6,
0787,
EF7A,
E5E6,
EBEC,
F457,
E625,
0623,
04D5,
E8E3,
F453,
EEA7,
ECCB,
EBEE,
E651,
E791,
E810,
E6DF,
F72B,
E327,
F163,
0518,
0CAA,
EB2E,
EB5E,
ECB9,
0371,
0A25,
1B20,
1471,
F6D5,
F897,
F52E,
EDDE,
EB36,
F0E6,
DA90,
E5C6,
F156,
E592,
DDF0,
EDEC,
E7F9,
DDBA,
F548,
DB57,
DC6D,
F34E,
E8BF,
F178,
EBD7,
E423,
DB3D,
F30A,
09CB,
07DF,
0D51,
FCB1,
FA2E,
0882,
F823,
EA1B,
E0CB,
D7CF,
DF91,
CF20,
E364,
E7D8,
F22A,
E6EC,
E70C,
E8BE,
ED60,
EF47,
EE06,
F027,
F3E2,
0506,
042C,
F577,
0487,
02B2,
1174,
14A7,
14CA,
0314,
02B0,
06BA,
EC12,
FCFC,
FC95,
023B,
026D,
E819,
E323,
F179,
E97E,
EC1F,
DF14,
EDA3,
C931,
E784,
ECCA,
FBD4,
FDE9,
EAF1,
01B2,
F884,
0B07,
1792,
04DA,
14ED,
122F,
1349,
F9E0,
1819,
0AB8,
1238,
203F,
082F,
0DBF,
1A82,
0429,
EF76,
EB59,
E7A8,
DAA4,
D8E4,
F7E1,
F769,
F0FD,
0690,
EF6D,
037B,
FB0A,
0166,
1537,
140A,
FCDC,
2323,
1FD2,
15C5,
FC43,
0BA7,
00C7,
0BF0,
1334,
16CE,
0AAC,
1015,
1246,
0B07,
1733,
2B3C,
FE2D,
0753,
0AD9,
FF9A,
0FC1,
13D9,
10F1,
092E,
036A,
038B,
0B03,
0EC5,
127D,
176B,
0F4F,
0BA1,
17C1,
2C0E,
1281,
0C6C,
0D4E,
1446,
0E1E,
216B,
2B27,
2D8C,
2A4D,
3AD4,
1BD7,
2141,
2EF8,
12B6,
1AFC,
1A77,
02A4,
FD9C,
0BE3,
0F0B,
08EF,
0BA6,
0D64,
140E,
12C3,
1407,
1712,
3984,
1335,
0AB4,
0B33,
12D3,
0AE0,
197A,
1D3A,
1761,
1F1D,
16DD,
1D4D,
317C,
1723,
216A,
0735,
065A,
156F,
1838,
0EA2,
2637,
08E0,
03ED,
0323,
21AF,
10DD,
1447,
1301,
2419,
1719,
0910,
0E8B,
0632,
1289,
0B9B,
05B1,
105E,
1F84,
199F,
203B,
1A50,
1C76,
1410,
0FD6,
FCDC,
0767,
0880,
1432,
06AA,
05CC,
1573,
094F,
1F48,
FC7D,
14D9,
030F,
1445,
0F5C,
1DE2,
1382,
0C77,
136F,
1C2D,
18BC,
1BC5,
1A94,
1256,
17CD,
0DD2,
1707,
2749,
1DD6,
0AFA,
09F7,
022C,
1124,
0E2E,
0756,
0411,
08CC,
0B6A,
FC29,
0505,
09A4,
FA7A,
0CBF,
0C55,
02F5,
08E9,
1264,
170D,
FA51,
FF26,
1583,
0B13,
1229,
0780,
0CE4,
22C0,
1EDC,
18C1,
0D89,
0679,
116D,
06B7,
1B1D,
0E3C,
F9A7,
FE7E,
074F,
0048,
069C,
04C1,
0B5F,
FEED,
F37B,
F84E,
06DC,
0AD9,
0F5C,
FADC,
13EF,
0F3F,
01D8,
0D96,
F2BC,
01FB,
0CC9,
0744,
F71D,
FCCD,
1921,
0B9F,
05AC,
F71F,
016D,
FD0C,
0565,
FF91,
FB5F,
FF0E,
0F5A,
0167,
EF2A,
ED68,
EC4B,
073D,
F467,
FADB,
FE42,
F6E3,
EF84,
09BB,
1228,
0F4C,
0614,
0011,
06D6,
1257,
0D3F,
01F7,
0BD7,
FF76,
0527,
07EE,
F294,
FEF6,
FB95,
0AC6,
057E,
0129,
E02B,
ED9A,
E9D9,
0047,
E169,
DC17,
E5D0,
E5DA,
E4BD,
EF82,
00D1,
FD79,
F74D,
0245,
0612,
174C,
FA69,
0389,
0187,
1129,
FFF2,
0B8F,
01CA,
FA3F,
0049,
FCCA,
0764,
0144,
F76A,
F06F,
E8EA,
DAF5,
DC6A,
EC72,
FD5F,
0A65,
0FEC,
2069,
17BB,
1947,
0FBF,
0C90,
0CBE,
0B47,
FC4C,
F1E6,
05A6,
F940,
068A,
FD79,
0533,
FF58,
F4D0,
05EB,
F57E,
00C9,
E92D,
E061,
D3A2,
CE05,
DA10,
E1DB,
FFE8,
1591,
1BCB,
0F68,
1AFC,
1F83,
0E00,
0B85,
F714,
FB59,
F869,
F1C5,
F9C1,
F8B2,
F196,
01C9,
F9DD,
F7FB,
FB2B,
01E2,
F4F1,
FE18,
FA9C,
E1A4,
CAA5,
CD26,
E318,
F95E,
111A,
1DFD,
2284,
3073,
0F2A,
17E9,
1610,
072B,
ECE4,
E16E,
E5BC,
EA7A,
FB97,
F0F9,
0253,
F25E,
FF12,
F9CD,
09BB,
F888,
007E,
F884,
FC36,
D5BE,
CA62,
C847,
DFCA,
0FED,
115B,
17B0,
32E8,
22CC,
1299,
2588,
04B4,
E6DA,
CEDC,
D736,
DB55,
E29E,
F013,
F41B,
EEB9,
F158,
FD5E,
FA6D,
066C,
F913,
02BB,
FB03,
EC05,
CF03,
C947,
B328,
F4A6,
1B7C,
FF1A,
1509,
15A1,
0377,
1414,
092C,
FBB4,
CC5F,
C9B6,
C9A2,
D3BF,
D7EE,
EE4A,
F5CE,
FA19,
EA15,
F4E9,
01F9,
07D4,
FA97,
09A7,
F50A,
E090,
CC75,
ABEB,
B067,
0EB1,
161A,
1DA6,
17B0,
13E7,
1442,
01D3,
F473,
DBAF,
D4BE,
C82A,
CF57,
D770,
EBC5,
F403,
F43F,
EE36,
F990,
FB88,
F7C0,
F996,
FDE7,
FD9C,
FFD9,
E3C8,
C30C,
A5B1,
C8D3,
06A6,
3CD0,
1D9D,
F4E2,
1E8C,
028C,
004E,
F0E8,
E5A3,
D29A,
DFE9,
F28B,
0106,
FE86,
02B4,
009D,
F9DA,
F48A,
F7B1,
FB49,
063B,
02E4,
1021,
F15F,
DB08,
BB86,
B5E6,
F73D,
0FC2,
11E0,
161D,
2197,
1FA5,
EB18,
E06A,
D23D,
E709,
E617,
0425,
09D5,
0D5F,
1D1C,
0CBA,
02AA,
00E7,
FF7B,
F702,
FC8C,
FCE1,
0CF6,
0756,
E9D7,
D697,
BEED,
CFFC,
F7D5,
0AB1,
0CE1,
113C,
12A1,
13BA,
E7B5,
DE5B,
E95A,
F6B5,
FBF0,
0E5E,
0784,
1FC2,
F9A1,
15B7,
0F81,
00EE,
01C6,
FDAD,
00D7,
F7DA,
122C,
0176,
FF5A,
E87D,
F5C5,
EC57,
EC25,
FF01,
2119,
106D,
1715,
08F3,
EB32,
D326,
EEEA,
FCBA,
00BC,
0887,
198D,
F936,
0987,
0733,
09B9,
0B56,
FC01,
0104,
03B8,
030C,
04B0,
015C,
04FD,
E662,
F761,
FCEE,
F4E0,
F6CD,
08F1,
074F,
0C57,
0400,
09AF,
EBFD,
FD5E,
F669,
0C96,
06D8,
1490,
0B4E,
FE77,
FC7B,
0B44,
0187,
F5D3,
032E,
F4A6,
F655,
FFD6,
FB96,
ED9C,
DDA0,
05E8,
F4BB,
F745,
0EF2,
1119,
0AF9,
FCA0,
EEA4,
F67A,
EE31,
FBC8,
0530,
154C,
F851,
028C,
FE54,
F89C,
F138,
0667,
0684,
FAC1,
FE14,
0172,
02CF,
07B9,
09F3,
FE83,
F837,
0062,
09E8,
F739,
08CD,
0C24,
1346,
FF10,
0AE6,
0336,
DE95,
E47B,
EFD3,
030F,
FC80,
FFC1,
024D,
00FF,
E80D,
0B74,
F08D,
0304,
FCAB,
10B9,
FCCF,
082E,
05CF,
EB17,
FFC5,
0C79,
003B,
084D,
08FB,
01CA,
0AC6,
EAD8,
08EF,
00C7,
FD6C,
050C,
F620,
00D4,
08BD,
00D4,
FE6A,
F3DA,
F794,
F7FA,
1006,
FFAA,
FABB,
0C01,
04CF,
FAD6,
F445,
FEFD,
0D88,
0CE9,
15F0,
08BC,
065D,
F170,
019E,
08B2,
F646,
F9E5,
FE70,
05FF,
FF0A,
E446,
08EA,
012B,
1EFE,
FE66,
13F4,
0575,
1251,
1179,
F6E9,
FE40,
0030,
0338,
08F0,
02A6,
FC8E,
04FF,
03AC,
FF79,
0493,
085F,
FB9D,
F958,
1226,
ED07,
F921,
0B9F,
FB49,
F2BC,
FF31,
01F2,
1008,
12EB,
FDCD,
0646,
086E,
1B52,
04A1,
F462,
FF31,
FBF5,
0E54,
03F4,
FE98,
EF49,
09DE,
F8F1,
F6C7,
1684,
F1CD,
FDD8,
039F,
EF02,
F0CA,
F3E5,
F447,
0C0F,
F2B7,
FA24,
EDBD,
F527,
0AE1,
FE37,
FDB5,
19DE,
FE3A,
FCBD,
19F5,
0351,
08DD,
0309,
FF22,
0EE2,
1941,
0A0F,
02A0,
0052,
FE37,
FA15,
0805,
021A,
F649,
0C8C,
FBB5,
FEB7,
EA89,
0696,
0C37,
124B,
13F1,
FF5F,
09E4,
15A4,
0011,
FC88,
0FC1,
056B,
FB35,
F758,
0213,
E6E0,
00F8,
FA0B,
F5FD,
FB38,
06CB,
01A9,
12D6,
025E,
FBA8,
0616,
F25E,
0516,
00D0,
FCA8,
FF47,
0D23,
0E97,
FDFA,
0582,
037E,
F4DA,
FE09,
1EF1,
0AF1,
0ACE,
0064,
195C,
FD3B,
1678,
0132,
0727,
06FA,
05F7,
0525,
0162,
FFC1,
0834,
F413,
FE25,
FDF5,
0625,
05CE,
F8B6,
062A,
0883,
FDA3,
F862,
F8A8,
028F,
F38A,
0BD4,
090D,
0139,
08DD,
1E4B,
EB34,
00B9,
0B5F,
F341,
F1ED,
FDBB,
0670,
FDEF,
FA61,
FB51,
0FA7,
EFF1,
046F,
FCDF,
F51B,
F4C1,
0307,
F472,
EE3A,
00B7,
F831,
039D,
FE9D,
0825,
F51D,
F810,
0CE6,
181E,
F40D,
F394,
FE3B,
F47C,
FD4C,
FD56,
0109,
0C1F,
F40F,
F7BA,
EFCC,
049C,
ED9E,
0805,
FC38,
FFB7,
0209,
029A,
F0DC,
086F,
00A3,
FDCB,
F432,
0A47,
FFD1,
FA73,
F9DC,
0891,
000C,
FD41,
FCE5,
F747,
0007,
05FD,
0217,
E16A,
F95A,
0746,
F57E,
0F7F,
0714,
FDC3,
FC9E,
FB8D,
0983,
00FD,
0991,
08E8,
FDAF,
018E,
0550,
0829,
F97D,
FA6E,
05B2,
01F9,
0340,
05EE,
0AFE,
001A,
1210,
F62C,
F816,
04E1,
0354,
F9A9,
0A74,
F6B7,
0F0D,
02D5,
04A2,
F23C,
FC81,
F309,
027E,
F879,
FC23,
0406,
F71E,
FF70,
02FD,
04B3,
03CF,
13B3,
FEC4,
06C9,
0BC2,
116C,
FCCB,
FE1C,
0242,
FC71,
07B8,
ED97,
FCF3,
F342,
04C3,
F8F0,
0314,
0665,
E7C7,
F8C6,
FD2F,
04EE,
010B,
F1D4,
F75C,
FDC1,
0805,
FF29,
0B13,
0595,
F78E,
07DC,
0EDC,
0A73,
02AE,
FB4A,
F501,
0536,
016F,
EFD3,
F307,
00A3,
F954,
FEC9,
02F8,
FB57,
FA91,
FA9D,
FACB,
0555,
F6A7,
0511,
FE45,
FB38,
03F6,
FB7F,
FCB7,
FB72,
F6D1,
F07F,
F7CC,
F53F,
FF56,
06E6,
0A2A,
F9F2,
FBB1,
F8DA,
053D,
FB3C,
F66E,
01E8,
01D0,
FFDC,
F1AB,
F2DB,
F7EF,
00BB,
08D1,
056E,
01D9,
0452,
013A,
0130,
F85C,
05AD,
0D92,
0459,
160E,
08A0,
0BB9,
07F5,
FFB4,
103F,
103E,
132E,
0A11,
110F,
FD0D,
07D2,
04DD,
031E,
0691,
FB25,
FEBB,
F514,
F6C2,
005E,
FFC4,
F81B,
014D,
03A7,
F6AD,
F98A,
0372,
F461,
F129,
F0D1,
E9B8,
E685,
D6B5,
D4CF,
D9AF,
EA13,
1195,
0CCC,
1977,
0A1D,
0D3D,
026A,
F929,
068C,
0B14,
01F5,
F7BD,
028B,
FF08,
FCB6,
FAB1,
0714,
04AA,
F3CD,
0013,
F4E8,
F610,
DDF5,
DE04,
DAA8,
D258,
D3CA,
DEC8,
E843,
0E7B,
1471,
1530,
0CFC,
0882,
0756,
F370,
0BA1,
0C8C,
F6ED,
0106,
F7DF,
FA98,
00C8,
0569,
FCB2,
FA91,
0262,
EC66,
FB61,
EF88,
DB9A,
D2FA,
D75A,
CEBE,
CD42,
F8BE,
13B0,
2067,
37B7,
246E,
1B92,
15FA,
0A91,
01A6,
FDA7,
0D27,
FE57,
06C1,
0993,
F89E,
050E,
0471,
F7A5,
F56C,
F467,
F161,
EB97,
F699,
DEEF,
C9A0,
CE3D,
E65A,
EB58,
FD18,
E7C4,
117E,
112F,
0E49,
1AB7,
279D,
13C8,
0F4A,
0F27,
FB4F,
0090,
09A9,
F9A4,
092C,
F343,
FFD2,
F8EA,
F5A8,
F5FF,
F26E,
DE37,
EBC0,
DFAA,
CC65,
DB4D,
E852,
F1CC,
E8A6,
00B2,
1220,
0733,
FCDA,
FE8B,
136D,
1BAE,
1ABB,
0E42,
07C3,
00A5,
0133,
FD92,
0519,
FF1E,
07FB,
F749,
FAEA,
F285,
F73E,
EA2F,
D85D,
D783,
CC24,
F190,
09BC,
FAD7,
0754,
FCA7,
0365,
F95F,
0A9A,
FF38,
0F27,
0E29,
1740,
17FB,
FE18,
11C4,
0977,
F96C,
0571,
F714,
F35B,
F7E1,
FB57,
FE43,
E8F4,
DA56,
D2C9,
D623,
D811,
F614,
F86E,
F232,
053D,
FC47,
0D2F,
025C,
0CAA,
0D1F,
21FE,
0F68,
098B,
17EB,
02C1,
01FE,
0F19,
0429,
FF17,
F84B,
F6C2,
F335,
F9A1,
F100,
E979,
F0A7,
D271,
C793,
EBA5,
0EDB,
05D4,
0976,
1013,
FBC9,
0306,
0CBB,
FEA5,
0ECE,
0A4B,
0262,
1753,
0DF5,
0A0E,
0F27,
FBF5,
044D,
F6D6,
F7DD,
F03F,
0022,
F413,
EF76,
EE61,
E3CA,
CE86,
D6BB,
EBFF,
04C0,
0861,
0970,
023C,
1134,
087C,
0CDE,
0919,
0646,
181E,
10A8,
0D34,
0ABF,
056B,
053D,
FD23,
FF5A,
F8E0,
FFCB,
F52F,
FBD2,
E5B8,
F235,
D57D,
CCF8,
CD43,
02E3,
0004,
0888,
1B2E,
045A,
EC33,
FFB4,
F31E,
F40B,
F19D,
E96B,
00B5,
0613,
0483,
F5C9,
ED00,
EA6A,
08C1,
F794,
F97E,
0867,
FDC5,
F78D,
EA8E,
E6B1,
DDB9,
B93D,
DBA8,
EC06,
0A0D,
085D,
1A00,
0890,
FA61,
F1DB,
EDFD,
EC8A,
E880,
D516,
D2B4,
DE58,
DA42,
E3EB,
F141,
EC83,
F525,
FC0D,
FD8D,
F3F0,
EE52,
EDFE,
EF2A,
EA7D,
D4C1,
BD30,
F4CF,
091C,
091A,
FD81,
F1EB,
FDEC,
FB68,
E0DB,
E93E,
FC08,
E36C,
E863,
F152,
CC7E,
CC54,
D512,
F94B,
FB0D,
EE80,
FC16,
F956,
0115,
0076,
EA5C,
01E9,
ECF4,
D6A2,
CC86,
FC83,
0F00,
0F17,
FD72,
19CB,
141D,
0F86,
F87B,
F61D,
015B,
F7D2,
13A9,
F871,
F331,
D24B,
E12E,
02A7,
E174,
F76A,
F958,
09EB,
03EA,
EFDD,
F0EE,
00D1,
F5EF,
D0B0,
F361,
0755,
F9F2,
0504,
085E,
EFBD,
138E,
0A0F,
0574,
EFA0,
057F,
FDD3,
08F8,
FD81,
F2CA,
DFFE,
E698,
F1BB,
F5C3,
F715,
F69C,
F608,
FA04,
FA65,
FC4C,
F9D9,
EEF4,
EC0E,
E8CC,
024C,
0641,
0CE9,
0945,
1CAB,
0178,
0358,
FAC4,
F202,
F481,
FEFA,
0459,
11BB,
07F4,
E712,
DE67,
FFA4,
F72A,
F404,
09CA,
F986,
F50B,
FAC4,
F657,
F860,
F7F8,
E6EB,
01F5,
001C,
0E25,
F934,
05BD,
0652,
0A88,
F824,
04E5,
FF69,
047F,
0776,
0EDB,
0985,
1002,
EE6F,
F60E,
E9C7,
052E,
FD4B,
F847,
04E2,
EC28,
F0D7,
ED55,
0F85,
F217,
E3CC,
F1BD,
F081,
0683,
0C13,
0103,
0842,
0D04,
FED0,
0791,
01ED,
F77B,
0B90,
1218,
F3EB,
0340,
F772,
F2FC,
F6B2,
FDAC,
0586,
FF95,
FA09,
F7CF,
EAC0,
E69A,
08EF,
0410,
F8CF,
FB98,
0533,
26B0,
FC86,
0D03,
03A9,
033F,
01B5,
FBB8,
ECCC,
171F,
FC17,
0D94,
0604,
13AC,
FDA7,
0E11,
0F30,
135A,
023D,
FCDB,
F9C1,
0104,
F620,
F499,
F10B,
F823,
E011,
061C,
0D53,
01A7,
0F32,
FBAA,
F1B0,
0960,
0609,
032B,
FBAE,
F4EC,
05E6,
07CE,
FD85,
002D,
F9CD,
F1F4,
0864,
03E7,
0CF3,
035F,
065A,
FC35,
D644,
FC9B,
01BA,
FE81,
08D6,
E4B4,
FDEA,
FC96,
0C98,
11D1,
0147,
0326,
FFEF,
FEE2,
F8F4,
0E96,
0692,
0130,
13FE,
E614,
0E04,
FEC3,
FF72,
0BB0,
0329,
F58A,
079C,
0156,
E21C,
D942,
F74D,
00DB,
0701,
0BC6,
F163,
1524,
19AD,
F533,
FCA6,
0015,
F6BE,
F910,
EC01,
016D,
0A94,
FE28,
F97C,
0995,
0E8E,
FF11,
025B,
F753,
F869,
F9DE,
FAC7,
0236,
F044,
EFB6,
E5E4,
FB20,
FD5B,
02ED,
FDEE,
F7D4,
FBD4,
0681,
07F2,
004A,
FC15,
FEC9,
F4A2,
03A6,
094C,
006A,
058F,
06E8,
00EE,
FE9F,
0A93,
06BE,
F895,
FCA0,
0041,
010E,
ED57,
F393,
FF3F,
E76A,
F2A2,
F6E5,
F859,
FFD3,
F4D7,
0C57,
10C3,
0840,
1245,
0823,
E1C6,
FB24,
0373,
F27F,
F369,
0A8E,
FDB8,
0F52,
159F,
0116,
F525,
FA5E,
03EA,
078F,
F2EB,
F832,
0E5B,
FEAF,
F88B,
00E3,
056B,
FDAB,
FF40,
0C37,
F572,
11C8,
04A9,
0710,
FBCC,
FFCD,
FF79,
F801,
FEB1,
02AC,
FE33,
0B28,
0F42,
FC54,
01DB,
02AD,
FEBE,
02AA,
F68A,
EE57,
F1CF,
EFA0,
F730,
0F34,
FB34,
04D2,
EB1E,
0343,
FB8E,
0206,
1CC1,
F975,
F2B5,
F39E,
FF45,
FF91,
0041,
0420,
F7FB,
F360,
F3F7,
FDAE,
F824,
06A2,
F531,
01D5,
00E1,
F9B0,
05B5,
F48C,
F552,
F457,
054E,
F7EF,
0A99,
09D9,
1C7D,
0E0B,
05F0,
F816,
086F,
0389,
03DA,
FB86,
0B6B,
0994,
F80D,
04C3,
F536,
11E3,
FCDA,
FFC7,
FC41,
FAEF,
0460,
056E,
FFFC,
1374,
0665,
F3D6,
0836,
FAB1,
EE56,
0553,
0AA0,
0636,
06CF,
F644,
FBCE,
0D6E,
133E,
0074,
FAB3,
07A9,
FDF2,
FCCA,
FB82,
F658,
01B0,
0745,
05FA,
05F2,
FF92,
041E,
FD02,
FF7B,
FC3D,
F1CB,
FC38,
E3BE,
F439,
EC5F,
FF17,
F2B1,
F49B,
05A9,
13B7,
0B1A,
05EC,
083A,
038B,
1630,
0E9E,
02AA,
1204,
0949,
02B2,
06FF,
0BD1,
122C,
1492,
1097,
070E,
0CA5,
1114,
0F01,
198B,
0BB7,
0F3F,
1D26,
1016,
FA86,
01D2,
FAA7,
FB67,
F00E,
E25E,
F797,
F2B1,
F2B0,
0711,
F7B0,
09CF,
F83F,
FA5D,
FBC1,
02C1,
115A,
034D,
04FA,
0C4C,
0C17,
038B,
1382,
15B1,
0E5D,
1A1B,
0EE2,
0185,
F423,
EE85,
02B9,
09D2,
FE56,
FA4F,
FDE7,
FBE4,
ECCF,
F648,
FC76,
059E,
FA6A,
0018,
010B,
FB52,
0971,
009F,
FE22,
FF77,
0126,
0702,
1312,
0B49,
0021,
1532,
0D0F,
F795,
0978,
F678,
034C,
07A9,
FF90,
FD1D,
FE78,
F1F9,
089A,
0C45,
1641,
F7D5,
0770,
0213,
FF50,
0928,
0845,
0C23,
04B4,
0145,
FBFE,
07A2,
03B2,
087C,
189E,
0E0A,
F6A8,
0A1A,
05D1,
149B,
1029,
1AA3,
05B4,
0F96,
0B44,
0FC2,
0747,
115E,
2685,
05F7,
13B5,
0519,
07EF,
0611,
FAA2,
FE86,
FCAA,
F6BC,
0921,
10D1,
0E35,
1C0D,
077B,
1AAE,
0FD7,
10FA,
0DAF,
0FF3,
05E2,
F347,
0F1D,
0BEE,
09F7,
1055,
069C,
0390,
1ADB,
034D,
089E,
FDE6,
08A1,
FD53,
FC3D,
1208,
021D,
08BD,
FB8B,
1415,
0BB9,
2123,
0AF4,
12FC,
1A0F,
0A0A,
1878,
0779,
FB66,
0C8E,
0F8B,
0152,
09AA,
0F72,
0526,
0C0E,
1271,
06E4,
FC83,
0A0F,
1020,
0948,
FA00,
07E9,
06DD,
0E22,
02E6,
05AD,
0910,
F29B,
15E1,
0D47,
1556,
0373,
FA89,
0F9E,
1E80,
FB25,
0695,
0D8C,
0FE5,
049A,
0DEC,
1509,
0FB5,
0946,
1376,
FD2D,
0717,
0C5E,
0759,
0676,
0A35,
0BA9,
031B,
13D6,
0E57,
08C8,
0AAB,
1D42,
1519,
09AF,
19C5,
2242,
0E7C,
175F,
06C7,
0803,
0AE6,
FDB9,
0B75,
1B11,
1655,
04FF,
057C,
FD6D,
0362,
16B2,
07AD,
FFA8,
1187,
095C,
1074,
0E6A,
0997,
0BBC,
FBD0,
139F,
0998,
0DDF,
FCDB,
05EA,
16EA,
010B,
056F,
FFE8,
00E6,
0DBB,
0DF9,
0A86,
11E4,
FFA3,
14A2,
0FF5,
0B36,
011E,
1683,
0D2A,
FF05,
FF19,
0523,
0C84,
FE42,
0C25,
FA7F,
15CE,
0A91,
1385,
084E,
0C7D,
FC8F,
02CB,
FC7E,
F7A0,
051F,
0CCE,
127F,
FDCD,
1335,
0FC5,
091B,
0B1B,
042B,
0300,
01C8,
020F,
EBE3,
0237,
E97D,
F8D7,
0E41,
1689,
156D,
0131,
032B,
1703,
1EE9,
1359,
0B13,
01B7,
0E26,
1252,
071D,
052A,
FEA7,
0AB3,
13ED,
0FB7,
0BE1,
0A4B,
EC93,
E8F0,
FB03,
FAEC,
F38F,
0F5A,
F709,
0A61,
0B5E,
05FD,
14FA,
0D9A,
0A24,
08B2,
1A15,
1475,
063A,
1F0A,
1DB2,
1BBE,
08A4,
FBFC,
0F72,
0D1C,
0FEC,
087A,
0FDA,
10DF,
ED06,
EB28,
F272,
F6F9,
0A09,
0B19,
06ED,
F9EE,
14EB,
162C,
038D,
1704,
1F2F,
08DC,
142C,
1C46,
1458,
0AB9,
1D7F,
20BF,
122E,
FA6B,
072F,
03FF,
02F6,
017D,
0177,
FDF1,
F322,
EF26,
D97B,
D703,
DB11,
F1BF,
E76D,
F33E,
ED18,
FC8F,
074D,
23D9,
4523,
4332,
2EB9,
2B63,
3184,
15C7,
FF9A,
0F29,
F686,
0A2D,
0138,
0F82,
FC22,
0487,
EAAA,
0002,
E8EF,
ED86,
D432,
CC2E,
C762,
B1D3,
B098,
BDC2,
A913,
CCAA,
C24C,
D563,
FBB9,
FB87,
0112,
116D,
12E8,
EC37,
F22A,
FB6F,
E9F2,
FCDD,
FA85,
FD79,
FACB,
160C,
F4E8,
F750,
F482,
E857,
EFA1,
D990,
DE94,
C2B6,
C1E7,
AB4D,
A351,
8000,
8871,
8000,
881A,
94FB,
AA71,
CCE2,
E1E1,
E45D,
E0DD,
F406,
F9F9,
F327,
00DF,
F897,
F4DF,
05C2,
1300,
F66B,
F4CA,
E5D7,
F3CB,
F759,
FA62,
E78D,
EB8F,
E649,
E0C9,
E04B,
C410,
B259,
B83B,
A407,
B2E2,
B9B3,
CDC2,
DBEF,
F013,
F8E4,
F61F,
F9A5,
FF19,
0337,
FB20,
F160,
0B82,
FFE0,
F9B9,
EE91,
FB72,
0543,
FEBF,
056A,
137D,
048B,
2551,
11DC,
119F,
120D,
141D,
FC55,
E994,
E480,
FC23,
F5A2,
E6DE,
EC46,
F1C9,
F40C,
FF81,
158A,
0929,
FD03,
F72C,
F97E,
01AD,
FF2B,
0A37,
08CA,
0C94,
0F70,
0AC3,
00C3,
1F6B,
08A6,
0002,
1667,
F132,
F86F,
0568,
DB7A,
E3FE,
E41D,
EF8B,
F324,
FEFE,
E9D3,
EAB1,
FB17,
15FD,
0A4D,
0C97,
FE21,
06A1,
030F,
0245,
028A,
FB9E,
FEF2,
F19B,
FCAC,
092A,
F684,
0306,
0494,
F396,
0650,
0769,
F839,
F44B,
EAA5,
ECB6,
ECF0,
FAD2,
E82F,
EF6C,
EC53,
F8DD,
0CBD,
F310,
F2FD,
0395,
0A96,
0713,
04A8,
FF5D,
0081,
03C5,
022F,
0667,
1241,
FA55,
06DD,
F868,
F1F1,
0237,
EAA2,
00AE,
F20E,
E4F1,
EDB8,
E820,
E609,
E5BD,
FF53,
01A0,
04AF,
FCA1,
0877,
0116,
088B,
F81B,
F3BF,
F52E,
F598,
FB7D,
F09E,
FCD4,
FB24,
F85E,
05D7,
0019,
1021,
FEDB,
FEF7,
F994,
F052,
F698,
F298,
E4B6,
F77F,
F7CB,
F21B,
EFAD,
F12A,
0462,
0085,
07A7,
0281,
0F01,
0BCC,
F34F,
F357,
DD36,
F97D,
F5AD,
F944,
FCCB,
0383,
0495,
05E6,
045F,
EDB3,
FB62,
F06D,
E4AD,
FB51,
F10E,
F0CE,
F752,
F4D1,
FFB3,
0606,
F718,
FCAD,
FB50,
087A,
01EC,
0BC5,
FC98,
0A0E,
EE0D,
E2E2,
FF77,
EC9D,
F21C,
EBCC,
0119,
FC56,
05E3,
F761,
F601,
F1B1,
FC3E,
F6E9,
F06A,
E37C,
ED36,
047E,
EFE7,
06E8,
FF05,
0330,
FFBD,
FA75,
FDFC,
FC3B,
FC4A,
0A6B,
02AC,
1421,
F955,
0845,
0F30,
00E7,
EF92,
F300,
FFB2,
F7BB,
093E,
F384,
EC19,
EE00,
E476,
EE7D,
E77E,
FDD7,
0084,
0404,
F966,
FFFA,
FC3E,
FDBE,
0AD9,
018A,
00D3,
133A,
02D5,
08B5,
F5D8,
FCCF,
0D3B,
11B8,
0E95,
09DD,
0375,
157B,
0776,
F810,
F228,
F7ED,
F62B,
FB43,
F467,
F6E4,
03E1,
FCE0,
FFF9,
0241,
0692,
00E1,
08F8,
0C49,
1165,
0008,
F8F8,
F489,
E9B6,
E643,
F092,
E75B,
FE46,
F0D6,
FC3F,
F992,
016D,
01E1,
0761,
FA42,
EADF,
F684,
0104,
0578,
F316,
03F2,
097A,
FCCF,
F818,
0321,
FC44,
0323,
0FED,
0C19,
125B,
023E,
04DA,
07A3,
FED5,
020D,
0913,
FE74,
FCBB,
07A5,
04C0,
0BE0,
11E9,
FE45,
0805,
FF47,
094F,
F740,
024A,
05B7,
F998,
06D0,
F3B2,
F789,
FF44,
0524,
F966,
0318,
0230,
1606,
FD82,
00A6,
E818,
FCDF,
F69B,
FD5C,
F14F,
F915,
FE7F,
0549,
FA59,
0412,
FC8C,
F652,
F781,
F757,
037D,
FB9D,
01E6,
FAE5,
F947,
FA21,
F6B6,
ED10,
FF5B,
FCA4,
FFE2,
0AE1,
036D,
F84F,
EF1A,
E577,
F889,
EFD4,
FE2B,
F072,
E2EA,
E395,
EEC3,
F5F2,
05CF,
FF3C,
074C,
F584,
FA4A,
06C5,
FE13,
F907,
006B,
031B,
0096,
F82D,
F8DE,
F87A,
F30E,
FFC1,
ECFB,
05B7,
0615,
FCBF,
EEF0,
DC70,
D0D3,
E3E6,
D37E,
DEBE,
DD61,
E891,
F1F4,
FE8B,
FF08,
07F0,
F57B,
0193,
0896,
FFE4,
F86A,
F709,
FEF3,
FE9A,
F4E9,
024B,
FDFE,
F278,
FEE2,
F573,
125D,
03FC,
F4E8,
04F3,
FB05,
E0F6,
DDFA,
CAD2,
C74E,
E4E3,
E1DF,
EC77,
F4FF,
F9F7,
FD25,
FCFE,
F541,
F8B6,
FD2C,
012C,
FD8E,
FC3E,
0282,
FD36,
EFC7,
E577,
029E,
FA73,
0A4A,
0601,
06AC,
0FD2,
072D,
000F,
E493,
D95B,
D068,
DBCF,
F1CD,
E858,
F9F1,
FED5,
F2ED,
FDA9,
F6BA,
F5A9,
04E0,
FB27,
05C5,
0585,
02E1,
0768,
EC42,
F96D,
0942,
0007,
03A6,
05B6,
F597,
F7C7,
044F,
FFBD,
F578,
F097,
E30E,
C7D1,
D3F1,
E4A9,
EBA8,
FA0A,
EEB5,
F1D1,
034A,
01DD,
0B0E,
06D1,
05CE,
000B,
F685,
F74E,
043E,
FB6C,
0033,
FD66,
FAAA,
07C8,
06F5,
061F,
F90A,
F339,
F361,
D91B,
D6B5,
CD65,
C3F6,
E2F9,
E6E8,
F036,
FF31,
F039,
F490,
067F,
092E,
FE70,
0596,
066F,
028B,
038E,
145E,
000A,
05CA,
F8A9,
FFA5,
0B83,
017A,
F738,
F7CE,
0AAA,
0731,
F935,
D6B4,
B537,
D693,
D5D4,
DE1D,
E0EA,
F59F,
F43A,
F5BA,
FD17,
00C5,
FA9B,
FCFE,
F49D,
0022,
FDB4,
F0F1,
0801,
06EF,
0BCB,
0EE4,
0B0F,
FEA3,
0791,
0BDD,
FC98,
ECD3,
F580,
BFBC,
C020,
D5DA,
DF37,
E2A1,
E3EA,
EAF1,
FF84,
F52D,
0375,
0AAE,
F6D3,
F42F,
04A6,
FB6D,
F8EA,
F6A0,
F4F7,
F8C5,
08A2,
19E6,
FFA4,
0114,
035F,
20B2,
14EF,
0BC4,
DFCB,
B0A2,
B33C,
C64E,
D4F9,
E202,
E7AF,
FDF2,
FCC9,
0603,
0177,
0AB4,
FC93,
11B6,
0E63,
F11C,
0081,
E754,
0439,
01F2,
F6D2,
220D,
02B3,
20CB,
1BC3,
21D8,
0FCD,
FF6D,
EC7C,
A343,
A642,
C604,
DA4D,
E55E,
E86B,
05A3,
0023,
003D,
0785,
0E16,
F939,
051A,
05AA,
0594,
FBBF,
F1D5,
1390,
FAA7,
1B6E,
13E7,
1FF5,
14AB,
23A9,
3092,
0A4A,
13E6,
E092,
9A14,
AD24,
CA2D,
E6EC,
DACF,
F35E,
0434,
0A6A,
05A8,
FFE2,
0327,
02AE,
136F,
FE33,
01EB,
0C3B,
F6F9,
F6FD,
02F7,
1BFE,
01C6,
1C2C,
1E96,
161E,
2482,
FC44,
EF81,
DEF5,
BA07,
C843,
C915,
D6AE,
EFFB,
F74C,
0605,
1769,
0B3A,
FB72,
FBA0,
F70E,
14FC,
01EB,
E7F3,
F6A5,
0264,
0719,
0243,
00B1,
17EF,
0F36,
09D0,
0AD1,
0AA3,
FF09,
11B8,
E1E5,
BAC2,
D8AA,
D9AE,
F398,
F9B8,
148B,
1F24,
1667,
FFD8,
F997,
082B,
F059,
0B02,
FCB7,
102C,
FD79,
EB09,
FF8A,
086C,
11D0,
0F53,
FFE8,
0B81,
0346,
06B7,
0231,
EC7D,
CD42,
DCAC,
F966,
F955,
0CE1,
FADC,
0F3D,
14DE,
065D,
08C2,
02C7,
21AE,
0366,
0EE0,
FF5C,
08A1,
084C,
FB74,
F5C2,
EB66,
16F2,
0919,
0D84,
00A4,
10C7,
FEF7,
E995,
F451,
EFC4,
CD3B,
0390,
0719,
1099,
1B18,
00A2,
1198,
0979,
0F0A,
FB4F,
191A,
0B06,
F9C1,
0481,
FDF1,
FE6F,
FA95,
00FD,
0081,
FFE4,
F05A,
1526,
FD50,
F121,
09DB,
F5BE,
E95E,
E775,
0401,
00ED,
009C,
F485,
000E,
0437,
0BF2,
07A5,
1231,
F6DE,
162A,
06FD,
FE05,
F8A6,
EC87,
F7E1,
0457,
F89B,
083C,
F9F2,
F5D6,
FC1B,
FEB8,
EEBA,
FC8F,
F01B,
E96A,
0256,
F9EB,
F91A,
F330,
0733,
01F6,
157F,
0113,
16EB,
0B06,
FEB8,
0C20,
0E96,
0EC0,
FA86,
FCB9,
F410,
06DF,
F76B,
FBC1,
F995,
FA03,
FA52,
F1CC,
0908,
F815,
055A,
E47F,
F659,
F9A1,
F68D,
F99F,
0657,
15C1,
1235,
1B73,
FEEF,
FD41,
FEDA,
0B9D,
0202,
13DC,
F962,
EC57,
EC35,
FC8F,
05F6,
F30E,
F1C3,
FF87,
FF7B,
F479,
041A,
03DE,
F6E4,
F6E9,
006D,
11A4,
06EB,
034A,
EEFE,
09CB,
F8BC,
0634,
03D0,
F816,
06CE,
0670,
FF65,
0AEE,
0044,
E2FC,
FBC1,
F9E9,
0306,
FEAF,
0B63,
019D,
F2EA,
FEA3,
1410,
FC06,
F48A,
04DA,
047E,
F648,
F7D7,
051B,
07D3,
FB9E,
F9DF,
01AB,
F599,
FEC5,
004E,
03AF,
F4C7,
0384,
0C3C,
F610,
FEE7,
F220,
EA2B,
FA27,
0F93,
FE0B,
FDF7,
033D,
FA85,
07CB,
FB56,
01B6,
F04E,
F679,
E87F,
FB21,
EBC4,
F193,
FA4D,
F323,
F601,
F48C,
02AE,
00C9,
FEDF,
0D1F,
09BD,
01FA,
05E0,
FBD4,
F439,
F7C0,
EF6D,
FBEC,
0671,
FD27,
09FF,
F8C6,
F361,
ECEB,
F20C,
10DD,
02AB,
0F80,
F947,
F306,
FD31,
0241,
014D,
FD4B,
036D,
F814,
0467,
085E,
FB94,
0638,
FEA0,
FA31,
039A,
F9EA,
FD23,
F468,
1A15,
1070,
F357,
E6C7,
0E25,
07E3,
F70E,
F88B,
EFE2,
0E50,
F17E,
025C,
EF1C,
FD4F,
FEB9,
FA77,
020B,
F5C0,
0057,
F802,
F9DA,
FC35,
F79E,
00A8,
0D42,
0D85,
F52F,
FA3A,
FFAA,
EADE,
F650,
EEC6,
F536,
F1AB,
E62E,
EEE2,
F6B9,
F426,
0989,
EFAC,
FC13,
FC75,
0211,
FD7F,
F87B,
0477,
07C6,
F901,
1156,
FC6B,
F496,
F351,
FE71,
0688,
0CA1,
03DC,
0340,
0F5C,
FCF7,
03CF,
F90C,
0E9D,
0C19,
FF57,
F4C7,
E1EF,
E601,
F329,
EE01,
F688,
F061,
0141,
00B0,
03D3,
FBDD,
0A91,
FD00,
05BF,
0B93,
0D5E,
0FE5,
0439,
F341,
00DB,
FC61,
0795,
FD33,
125D,
FE0C,
13EC,
0887,
08AB,
FECD,
00FE,
ED36,
FA38,
FF35,
F265,
FB6F,
FFC7,
06F3,
09BB,
06A7,
FCA2,
F806,
12CB,
0AFA,
050A,
FCA0,
FBEF,
0DD0,
FAB0,
F92E,
EF85,
FA79,
FF31,
F4DB,
FA32,
F1EC,
FC02,
FDD8,
030A,
0273,
0227,
F206,
F22A,
00F4,
F35C,
057E,
FB65,
FA63,
F8B0,
FFF5,
F6DC,
F7C3,
F52A,
0929,
0557,
18F7,
238F,
197E,
F969,
FC61,
0906,
FD3C,
0686,
077D,
19DB,
11FC,
0C82,
FEE8,
04E5,
F4A8,
042D,
0044,
F6EA,
F6F1,
09AD,
0179,
F934,
042A,
FD62,
078F,
FE38,
05C2,
FAD3,
01FF,
0610,
0CC5,
05E8,
0636,
00FB,
074B,
FACA,
146B,
0762,
1D4E,
1DBE,
FDF3,
04DD,
0B33,
05BE,
08EE,
088F,
0693,
0808,
0013,
FEDF,
082E,
0B52,
FEE5,
FD77,
0DD2,
098C,
FF91,
0B82,
01CC,
0E00,
FBD2,
0993,
1461,
0E27,
02ED,
00D6,
0D07,
1FFE,
166B,
0DD8,
0883,
07B1,
0570,
0B97,
07FC,
0564,
FF73,
023E,
F917,
10D0,
00A7,
031B,
13D7,
FC0C,
1439,
15B4,
091B,
0AE5,
17F5,
0411,
1452,
114C,
FCF5,
09EF,
0EDA,
106C,
1574,
121E,
09BC,
19B3,
02DD,
078E,
0462,
EFEA,
F65E,
04D2,
EF62,
EA3E,
07BA,
F986,
008D,
1208,
0A7E,
055A,
0F9B,
1EFC,
0431,
0B7D,
2224,
1618,
0C47,
020C,
10AF,
0A42,
13C2,
0210,
1919,
2213,
0E22,
11E2,
070F,
FF3E,
FDF3,
F5CF,
E44C,
F81D,
FDA5,
18C8,
FF35,
0E37,
1EC6,
0715,
077D,
0CE3,
08E2,
060F,
10E6,
08DD,
0799,
0CBB,
0B34,
0B35,
0DE7,
19A1,
231D,
1946,
1BC3,
FBAA,
F880,
F8D0,
F2BA,
F1DC,
FC0A,
038A,
1B22,
1D5F,
0A1D,
125F,
0A46,
0C6F,
1F1F,
1782,
0E28,
133E,
08A0,
123F,
1D22,
0AC0,
1DE9,
1EBB,
0FB6,
1B5D,
1474,
15E7,
0401,
0CFC,
013F,
FF4C,
F95A,
F499,
F2A8,
F6C4,
F79E,
0039,
FA48,
FDDD,
0E95,
1259,
012B,
093B,
F5E2,
0A86,
0FB6,
F3D8,
039F,
0562,
F184,
06BB,
FE84,
F09A,
FD0B,
F9AA,
F1EC,
F3BF,
FAEE,
FB2D,
FEDB,
F52A,
0D6D,
EECC,
0CCF,
060E,
0D18,
106D,
FE02,
0D00,
E162,
C298,
A22F,
A473,
B7F4,
AEA1,
B9D1,
C956,
DD09,
C6AB,
D061,
C694,
E507,
DCF2,
EE8A,
F187,
011E,
ECCA,
F22C,
E7BA,
0657,
0414,
0912,
0C48,
06E6,
0339,
F25A,
FAD2,
DC9D,
D2AB,
DD76,
E880,
E952,
D8DB,
BFDF,
C01E,
B481,
C690,
C643,
CC25,
CAFB,
D4A5,
D391,
E67C,
E6E5,
0748,
0BF6,
F7DA,
F5A3,
0044,
FA06,
0CF6,
FFDC,
F49A,
0464,
F4D8,
D9E7,
E1B4,
FEF2,
04EA,
F4E8,
F959,
01E7,
E3E4,
E172,
C7FE,
CA06,
C0EC,
CEEB,
C954,
CFFF,
E5AB,
E770,
0270,
097D,
FFEC,
FF06,
F3A2,
105B,
FD63,
0819,
04CB,
F6DD,
FAE5,
056B,
E0D5,
ED30,
FD38,
F525,
00B2,
0F12,
FC20,
0202,
FE97,
E784,
EF88,
ECCD,
DD32,
D162,
E509,
F90B,
0383,
07FF,
FA3D,
FE85,
F0B1,
FA56,
1444,
002A,
FFCA,
0107,
F159,
ECED,
E503,
ED6F,
DED1,
F8C1,
ED03,
F944,
1BA7,
F57D,
05E0,
FB3E,
EEBC,
F274,
F51E,
E35A,
EA05,
FA73,
0486,
165D,
062B,
F60B,
F8A2,
15B9,
1913,
0129,
055B,
FE55,
FCEF,
FADE,
CF1B,
FA85,
FDC8,
045D,
EEF4,
078F,
0368,
0B33,
F6F2,
E8F5,
ECD9,
0B8F,
EFA7,
E606,
F05A,
EF30,
0946,
08BD,
0989,
0352,
EB80,
FFBC,
01C7,
072C,
0274,
F55C,
F771,
FA87,
F881,
E679,
FC33,
11DD,
F469,
F697,
FD64,
FB76,
F4BF,
E8D5,
FCB8,
05B9,
0876,
EB23,
ECEF,
EDCE,
FF05,
06B5,
FCE7,
F9E7,
EC55,
FEF6,
1350,
11BB,
F53A,
F657,
FC46,
EDF7,
FE05,
F4FC,
FC3A,
F26C,
0107,
02C1,
FB44,
F0B4,
FEF0,
F5FC,
F79E,
F140,
FB3C,
EB0E,
F213,
F09B,
02C6,
037E,
08B9,
007F,
0160,
F77C,
ECC8,
F752,
FA6A,
0BBC,
F6D8,
02C5,
0193,
F6C3,
EAD5,
FB9A,
FAD4,
F7DD,
EFBB,
0236,
F84B,
035A,
0468,
F97D,
F3D5,
E2BB,
FB85,
F9DF,
FDB4,
17DB,
08A8,
08D5,
FA6F,
EDB8,
037F,
0869,
FFBF,
0CA3,
0454,
0260,
043A,
F76A,
0AAD,
F4BF,
0022,
FB8D,
EF75,
F2B1,
FC0E,
FF6D,
F325,
0CF3,
0247,
E52B,
FF00,
FEA5,
057B,
0A66,
0755,
0862,
EACA,
F341,
FD37,
FD4D,
E6CF,
FB05,
EF03,
F506,
0080,
F663,
0179,
FE7A,
F35F,
0692,
FB55,
003D,
F5B3,
14A2,
FC40,
0F67,
EBBC,
EB15,
FB32,
006A,
F803,
0A69,
019F,
FED1,
F636,
FB43,
08B1,
EF61,
F905,
FAB0,
FC21,
1765,
F677,
FC68,
1445,
059D,
0452,
0DE6,
F547,
0ABF,
04FB,
0A95,
0E32,
F6F8,
057A,
F48A,
01A4,
0981,
FB89,
F837,
063F,
0615,
022E,
0463,
0445,
F44E,
FBA0,
0210,
FF91,
F38C,
EE27,
06A9,
13C7,
E777,
FD8E,
0966,
0368,
15E4,
F440,
0891,
056E,
062D,
0019,
03AD,
0814,
0669,
0632,
03EA,
F49B,
F94B,
0BDF,
FBEC,
FE82,
F998,
07DA,
F2E4,
FDDC,
F771,
FCAE,
023A,
EC75,
0504,
0D3C,
F9CD,
F880,
ECA7,
042A,
F109,
F166,
0359,
F97B,
045C,
0713,
02B4,
073D,
0F05,
F450,
0A0E,
0836,
043F,
0780,
FBEB,
02E4,
0061,
F626,
F83F,
0F16,
02FB,
F94A,
FA9C,
04D0,
0DF5,
FFD1,
0A4E,
F7B7,
FA74,
0073,
ED7B,
ECB4,
0E07,
FB0B,
0B77,
0C22,
01A3,
FE87,
0A3F,
FA88,
F50E,
F855,
03B3,
F112,
F7DC,
0197,
F936,
FBF5,
F884,
033A,
029B,
0907,
FC5D,
F859,
F4CC,
FD32,
FC9A,
F58C,
F777,
FD88,
051F,
034B,
FAEE,
077E,
0780,
06F7,
0F39,
09C2,
06E0,
02BE,
F9F4,
FCC4,
0285,
10FD,
076D,
00F7,
FB8F,
FA2B,
FDE5,
0B5D,
ED71,
FCA8,
025E,
0B7D,
FFA1,
EE74,
F96E,
0105,
03CC,
FD42,
0E92,
F772,
FBD7,
09BC,
FAF8,
0643,
0262,
07B7,
0B1E,
FA1F,
078F,
0BF7,
040B,
F837,
08D2,
0628,
05AE,
1B10,
0342,
0E27,
FE5C,
00D6,
0CA5,
0C99,
F691,
0924,
0DFE,
0B92,
114D,
01D4,
0669,
F43B,
F9A9,
0D5D,
0FD2,
0478,
FA4A,
098E,
FAF3,
FE56,
08AA,
FAF7,
09C5,
FDC5,
00DC,
0BE7,
FE22,
FA9A,
0977,
1224,
1539,
15BA,
06D5,
0F80,
FBAF,
FCD5,
0CCF,
02C5,
FBAE,
F3C4,
EDF3,
FFDA,
FFFC,
0317,
058E,
FA51,
02A6,
08AA,
FDD1,
F7CD,
F22F,
0676,
FEA2,
F633,
0051,
FF3D,
088F,
1271,
10F6,
1B2A,
01F9,
FD9F,
0413,
0F7B,
FEF6,
F83A,
FAEA,
02F6,
01A3,
0065,
03EF,
FAF8,
05CE,
03CE,
003C,
0BDB,
0B37,
F9D7,
FA73,
0293,
025F,
0C11,
1461,
0CD8,
027B,
0DB4,
1957,
FE21,
F76D,
FD65,
FD5A,
0BCE,
007A,
00BA,
FE2B,
F6DB,
0804,
FDD0,
0DFE,
09C9,
0FA1,
09C6,
0ECF,
05D3,
FF06,
0692,
FF8F,
11B2,
0344,
0375,
F6F8,
F015,
14D9,
080D,
1133,
06FE,
FC85,
F6D2,
0801,
FA18,
0302,
FE8F,
F91E,
FB5C,
F96A,
020B,
F8CE,
F174,
0E61,
110D,
0042,
FCE7,
FA47,
102C,
F794,
F614,
F6C5,
FA6B,
FFE7,
04E4,
0961,
094B,
0810,
0E7C,
0C0E,
01D2,
0417,
00E3,
02C2,
F976,
FC93,
0FB7,
04A0,
FAAC,
F224,
FD76,
FF33,
FC83,
0548,
FE73,
FC98,
14CF,
0E28,
DEAB,
F23D,
1954,
024C,
0E2E,
0107,
0105,
0634,
1375,
0189,
FEEC,
0D2A,
0975,
FD49,
0A5E,
0031,
10E3,
FB44,
FC9B,
05AB,
FE94,
0703,
0B12,
0F44,
0F27,
0BDB,
03F2,
0250,
08F9,
0A5E,
0766,
FFE2,
0DC0,
1B34,
FC99,
FBCD,
F2C4,
FE7A,
FF9B,
00AD,
FD81,
061C,
FD4E,
02F8,
09D3,
FDD8,
02F3,
071C,
036B,
F686,
0374,
1119,
1110,
FF2C,
05A1,
FB02,
FED8,
07E3,
0F82,
F912,
F610,
FBD4,
01A2,
0E1B,
FC57,
0101,
F34B,
FA69,
024F,
091F,
FC89,
06C6,
FB15,
F620,
F84E,
F78F,
0378,
0CDE,
F750,
0E87,
F2C1,
FCA4,
F894,
F2AB,
FC6F,
F868,
FD1E,
0504,
07BE,
01AB,
F6A1,
FF05,
0BCE,
08B5,
05E1,
0774,
0A5B,
013B,
F766,
F912,
1690,
0579,
0545,
0527,
0779,
F295,
E6E3,
0216,
FDE7,
0084,
FB15,
FE1B,
036D,
F48A,
0113,
0A32,
02D2,
F8B9,
FD15,
FC26,
E754,
FEB5,
02CA,
09AE,
079B,
FD06,
F51A,
045E,
049A,
0938,
08F3,
0883,
0D85,
0023,
E781,
F6E3,
FC72,
0087,
EC4D,
FC85,
FE78,
0309,
F5BB,
FCBB,
EE25,
F55F,
F30F,
EE61,
EE07,
0654,
1768,
FEE4,
0D79,
FC35,
0692,
076E,
FC81,
087C,
0DDD,
07FC,
0AF2,
FF5E,
FE88,
CA7A,
ED4E,
FAD7,
F6D4,
FFEC,
104E,
F56B,
F776,
F0A6,
EBB3,
E403,
FD81,
16C0,
09F4,
15B1,
1669,
089D,
0778,
0AB7,
04E1,
0A7A,
0B1F,
142C,
1044,
F772,
060A,
10D2,
E8A9,
C878,
F296,
FAC7,
F487,
EED7,
090C,
0754,
E9EB,
FFDB,
E618,
D276,
0BA3,
102C,
0304,
1424,
1340,
0E59,
0334,
1C30,
0863,
036D,
1175,
0A91,
08D1,
17C0,
11E6,
15F2,
CA61,
B95D,
035F,
031C,
F0B9,
0846,
00C3,
F36A,
FA29,
E89B,
C5A7,
BB05,
070C,
35F8,
0CF5,
0C77,
0805,
0700,
0F71,
0702,
10CE,
096B,
0711,
0C7D,
0C33,
0F0C,
35AE,
0073,
B9B4,
BE9C,
F273,
FA19,
0CBF,
059F,
1540,
10EE,
FE3C,
E2FD,
B6E9,
B4F3,
0DD8,
2432,
05EE,
0653,
0B99,
1580,
0852,
0AE9,
07F7,
07C9,
029D,
00D5,
13C3,
111F,
2499,
E5C3,
B103,
BD69,
F349,
077F,
1037,
02D6,
1BFB,
044A,
1C14,
E775,
9EB7,
B3DF,
F08E,
2A2C,
0EE9,
08B3,
EDFD,
0391,
FE2D,
0035,
0C52,
0F7B,
029F,
0855,
0195,
1542,
2D0B,
FAD6,
CB32,
CDC5,
F5D0,
0811,
12D4,
0B17,
0A46,
1446,
114B,
EB5B,
9FEF,
CCEA,
10D9,
1BFD,
066A,
F585,
0053,
0D96,
0986,
FFC5,
0B14,
0197,
14E2,
110C,
1DCD,
0EDE,
25F1,
F3B1,
BF82,
C5E4,
F639,
0A06,
0AD4,
098A,
0775,
05D5,
0445,
DF3B,
AFB0,
E4BA,
FAFD,
0A61,
066A,
03B4,
09C2,
0608,
015B,
F380,
FA36,
F8E5,
1A40,
1DC5,
13B9,
231F,
09EF,
D9DA,
B0FE,
C030,
F24E,
1995,
FCB2,
075C,
0A96,
F8AE,
01F5,
DCA9,
AE20,
D0DE,
04D9,
1107,
F3D4,
1991,
0BCB,
0841,
FEFC,
EEE2,
0224,
01BE,
13AF,
14C8,
188C,
1690,
017A,
E00D,
BC8A,
DC8C,
1209,
135D,
FE38,
023E,
089F,
E80A,
F270,
E826,
BE04,
0305,
1821,
299B,
05AD,
0C24,
128B,
0FDB,
F7E8,
F299,
0372,
FD05,
24E8,
1223,
230B,
1B89,
FB67,
DDF1,
DA86,
E915,
F0B3,
FA09,
F49A,
0F97,
04D2,
0304,
DEAB,
E7D5,
E461,
FD42,
FFA6,
0BCE,
035C,
0340,
0566,
037F,
DE1F,
FCCD,
F742,
FFB5,
19E1,
1354,
0EDB,
07D2,
0142,
D4E9,
D702,
00C2,
F5D5,
E880,
0BD5,
093F,
0BCC,
ECB9,
FDA8,
EB76,
F1E7,
0802,
F933,
0102,
05C8,
FD24,
0C2E,
FA36,
F484,
FD5A,
09A5,
F7AF,
0DD7,
FB63,
F8C2,
F93F,
FD65,
FDF5,
EBAB,
E9C1,
0CA3,
058E,
F95B,
FCE7,
079A,
FC9A,
F209,
FF5C,
F8C9,
0BA4,
0915,
FCE5,
00CA,
0E90,
02DC,
FDEB,
EFDC,
FF46,
FC70,
F6F5,
0132,
0EF6,
07A1,
F28B,
0116,
0925,
F682,
F4C7,
FA5C,
F7DE,
0535,
F121,
FA05,
0857,
0326,
08B1,
0B00,
FDB9,
08E8,
FB4B,
0411,
0210,
1391,
FEC6,
F992,
F647,
FB84,
F35B,
FE40,
FD53,
0CFC,
0373,
F7E5,
FCB5,
FF5C,
172A,
FF44,
E32D,
084A,
F949,
04F6,
F488,
01AB,
05CB,
1622,
0280,
FA35,
1180,
0C90,
0653,
FB24,
F20C,
EE8B,
F96E,
F56C,
F88E,
EEEF,
F91A,
0342,
0B84,
00A8,
07CB,
0E88,
0A0A,
EEE6,
FE98,
FA51,
0020,
E4B2,
022B,
FA54,
0EAA,
F7DF,
0C18,
FDC8,
F106,
0A5C,
0169,
FCF4,
FA3E,
FB88,
EF54,
FE49,
011E,
FC31,
F401,
FA9B,
10B0,
0337,
0AE0,
0397,
012C,
FE2B,
FD44,
037F,
FE63,
F885,
0F93,
EEAC,
1E2D,
1172,
1B39,
167A,
0D04,
F067,
06DF,
0180,
FCCA,
FC30,
F0D0,
F6F3,
F889,
EF22,
F2B6,
F32F,
011F,
0A5C,
F8F9,
0BB0,
0CBF,
0719,
061E,
FEE4,
F9D4,
0C61,
0906,
0EB7,
0BD9,
097D,
0DAA,
10B6,
029A,
F373,
08E0,
F7BC,
02B8,
F65D,
F42E,
0383,
02EC,
F440,
010D,
F2B1,
F9BC,
F9D8,
F14A,
0B70,
0647,
0580,
F91D,
F382,
EF9C,
0079,
0562,
0112,
F6E5,
1624,
14FF,
08C6,
041D,
FFC9,
0277,
085C,
05FB,
0AA0,
F8F6,
FE4D,
000F,
0111,
FF83,
06A1,
08AB,
F849,
FCA0,
0187,
FC6B,
08B0,
08F6,
F793,
F934,
0401,
04F5,
0C9B,
049C,
1A53,
0E6E,
0306,
0B1F,
08F2,
000F,
00AE,
10A5,
009F,
FB64,
0480,
F79D,
0CB2,
01D1,
118D,
F8E3,
F394,
F313,
F2B8,
EBF5,
FA04,
F9F7,
0127,
F372,
E760,
F5D4,
F574,
EEBF,
FCA7,
F7D6,
E7E3,
F1A7,
F78B,
06E5,
F89A,
0308,
0512,
F8B3,
0595,
FFE8,
0B30,
07AD,
049F,
FA97,
FC85,
F354,
08D5,
FE3A,
EDAE,
0623,
1332,
0412,
F823,
F988,
FB83,
0875,
0ED2,
FDE5,
0120,
ED73,
E74D,
F170,
F653,
FEC9,
091D,
F4ED,
FB01,
080B,
0002,
FD9C,
0E27,
10AD,
F915,
0519,
0343,
EA00,
F3E8,
002B,
0A28,
05E8,
F1AE,
0674,
FFE6,
1390,
0038,
08C0,
01AA,
E992,
FA38,
E833,
04DE,
05E8,
0555,
01E1,
0DCD,
FC74,
082A,
09FF,
0047,
071F,
1868,
0D0D,
046A,
F062,
0170,
087D,
0BB4,
0916,
F952,
12FA,
0DA7,
15EA,
FEAE,
00F3,
0AD0,
06DD,
FD4A,
F17E,
0786,
F41F,
056D,
0003,
0061,
FA87,
F569,
0077,
FBF8,
0EB8,
09BA,
0A88,
EE6F,
F514,
0379,
0ABD,
F6CB,
03EA,
01EF,
11D1,
0755,
F316,
0159,
FCE2,
FE39,
F96E,
0708,
F7A2,
002B,
F612,
F3A4,
0522,
FD61,
0092,
FA6F,
0FAF,
0667,
0E00,
FDBD,
152F,
0B90,
0134,
FC58,
02A5,
05AE,
096C,
16E4,
0773,
F42F,
0FDC,
FAA5,
08A4,
1C77,
1A7D,
09F3,
11B6,
0993,
F45B,
03F0,
0140,
FAA3,
F879,
FBA1,
032D,
F901,
0DD2,
0E4B,
0C4C,
FE51,
077C,
03F3,
056B,
01D3,
0E15,
0773,
06F8,
0BFF,
11B4,
FA07,
02E4,
051F,
0BD3,
0464,
0511,
0DCE,
F80E,
FE2B,
0965,
FE43,
02BC,
F708,
01DF,
FFAB,
1818,
F63D,
1708,
0926,
039B,
02A9,
FE24,
12EB,
158B,
0598,
08D3,
FC88,
0E4C,
15DD,
0A2C,
0918,
0A30,
12CB,
0A52,
0481,
0B2C,
F575,
00BF,
0224,
0C62,
0028,
FED7,
0684,
0BD4,
047C,
0E98,
0CCE,
1122,
FE1F,
1613,
E8CC,
12E7,
10D4,
0A98,
FEE3,
165F,
103E,
02C2,
004F,
FEEC,
E932,
10DF,
06F6,
0D62,
16C4,
0CAE,
06F4,
FE44,
044A,
0660,
0928,
06AC,
1B3E,
FFF5,
103A,
09C7,
1525,
0918,
0C57,
0815,
FCFF,
0542,
068E,
083C,
F793,
0F04,
1E3D,
FE83,
0302,
0577,
219B,
166E,
1D81,
1A6C,
0AA4,
FE62,
0B8D,
0B04,
0881,
F4FB,
0C55,
0417,
0EFE,
069B,
1D96,
FC69,
0BAB,
F9AB,
092D,
2097,
14C1,
085C,
04B6,
0B30,
FCE9,
1326,
21DE,
18C6,
0CF4,
1F75,
0C44,
0EEF,
06B8,
1BA3,
0C74,
FA4D,
1045,
0644,
0784,
02E6,
0714,
172D,
100F,
1528,
2203,
0315,
0CC8,
FC82,
0E7E,
09A6,
028D,
FA96,
1A1B,
1EBE,
0AB3,
01BC,
182D,
1147,
06DC,
0D89,
0C91,
20E9,
05AA,
0D95,
05C3,
F63B,
FB6F,
0908,
F569,
0978,
09A9,
1046,
17AE,
145F,
077F,
046D,
FA6A,
0C31,
1717,
1D71,
03FF,
08BE,
0D9C,
0432,
1356,
19A7,
0170,
FA3F,
1860,
150A,
0457,
0C7B,
07F0,
00E9,
049D,
07FE,
02F5,
0795,
09A1,
0F1A,
17AA,
1932,
07B5,
1D71,
16C2,
0049,
0BBA,
0013,
0320,
052C,
1154,
01E0,
052C,
0819,
07A8,
EFD5,
1476,
18B6,
1516,
FCC9,
F9B5,
FEF4,
FD08,
FEC6,
F74C,
08B9,
00E6,
0745,
0E85,
18D3,
34CA,
073B,
2E2B,
0F19,
1829,
015F,
0376,
0A41,
0FEA,
FA76,
FFDA,
FD65,
F60D,
F010,
0074,
F806,
12D7,
03E4,
05B8,
FB55,
F50E,
FE68,
F943,
F97A,
FC68,
FEBA,
05A2,
069F,
0A92,
EBFE,
08C4,
E807,
FD09,
E667,
F189,
F927,
F1D9,
039C,
054F,
08BD,
F6E6,
FD0F,
F515,
F4BE,
F7B5,
08E9,
147E,
F003,
05F5,
FF6C,
04A9,
E4B2,
EC38,
F0AC,
DA67,
E4B5,
EFA2,
CAD1,
D4B4,
CB8C,
E136,
D06B,
D91B,
E596,
D96B,
E42D,
FE0F,
FB2C,
ED2F,
FDE3,
EFB1,
EA95,
F4E7,
0678,
F949,
EF71,
ECF7,
FB55,
F542,
FB75,
E9AE,
E35D,
D64D,
E160,
DA09,
DF7B,
F7A9,
E3E5,
DECC,
EA25,
CEFB,
D470,
C724,
D520,
DEC4,
DD77,
D60A,
EB73,
F926,
EB20,
FB6D,
EE07,
E011,
E97A,
F928,
EEC2,
ECF0,
F219,
E2A9,
FB2E,
EE1E,
F143,
F149,
EF3C,
E145,
DC14,
E5E1,
DA57,
E262,
D39D,
CCD1,
E512,
D8D2,
CF13,
D65C,
DADE,
F1B0,
FB57,
EC6A,
DD12,
FE42,
09E5,
FA71,
0796,
F053,
04F8,
F16C,
03E8,
F760,
F15C,
F68F,
0277,
FCA3,
02CF,
E8B2,
FC58,
DF31,
F35B,
F14D,
D908,
DC44,
CF35,
E64B,
EE24,
F96A,
FD6F,
F4B5,
DB8A,
E7A8,
F7DC,
FD43,
0435,
FAB4,
FE00,
E76E,
E8C0,
E87F,
0007,
F5D1,
F2EE,
F6D9,
EE91,
F47A,
F109,
0359,
FD7B,
EE65,
E03A,
F06E,
F452,
E524,
F46A,
FDB6,
F8E8,
F4EE,
EE88,
DD2C,
F946,
ECF8,
E3EA,
FE32,
0EDF,
096F,
F194,
ECD2,
F0BB,
F564,
FA74,
FD96,
FCA2,
F8C7,
051E,
F722,
09D6,
E3FD,
F05E,
FC37,
FBE3,
F0F5,
F5B4,
F71F,
F409,
EF5F,
E8E1,
DFDD,
ED7D,
E0DA,
FE31,
F368,
F398,
FD42,
F720,
F242,
048F,
F702,
FFBE,
F5B4,
0446,
F9C9,
F507,
0341,
F9A9,
F8F8,
F73C,
0DB4,
FF05,
0400,
0040,
FC09,
FF28,
F672,
E7E4,
EF39,
E842,
F7EF,
F367,
050C,
DCC8,
ED37,
0D34,
10C7,
E053,
F692,
EFF7,
FF1C,
0855,
04D8,
0708,
0174,
FE57,
F550,
08A0,
037A,
074C,
01CD,
017D,
03BE,
07CB,
066A,
0011,
F622,
F079,
ED0A,
E5C3,
F4B6,
E424,
F18B,
E437,
EF1B,
E666,
FD17,
0502,
FACD,
F7F6,
0348,
11B2,
0E9C,
0837,
0129,
0CB3,
007B,
FCC4,
F7ED,
04A4,
FF62,
FC32,
F352,
FB93,
FAFB,
0275,
F0A6,
E8BD,
E9F0,
FE0C,
01C0,
EAB3,
E702,
F4AE,
E6DE,
F055,
F378,
FA1D,
F5E4,
E6A7,
099C,
0593,
FD6D,
FB37,
FA90,
0704,
0C35,
F6B9,
F885,
0A4F,
0995,
FD92,
0E83,
0BE3,
0291,
0404,
F6C4,
FABC,
0498,
F3D0,
0C7F,
EDC3,
FBFC,
EC06,
06B6,
FC3D,
01CB,
FC46,
FD84,
00BD,
FC0A,
018C,
06CB,
FCC5,
056C,
FF81,
016F,
0818,
FB74,
F6CF,
0086,
0473,
0DC3,
0DC3,
0CB3,
051A,
FD01,
244A,
1DD8,
F6FA,
0CAF,
148C,
0FD8,
FD3E,
0568,
0A28,
05BD,
0473,
0D4C,
FBF9,
094B,
03AE,
0DF6,
0E68,
0181,
F89E,
0A64,
02B1,
0436,
0846,
FD24,
FDC2,
00C8,
F126,
FB12,
01A3,
0F4D,
FA61,
FF8A,
FDF4,
F875,
05BC,
F435,
0575,
F720,
FB64,
F887,
F5D0,
FDCF,
F7A2,
F786,
0A6A,
097C,
02F6,
F5D6,
F89F,
FCCE,
00BF,
F45C,
FA10,
EF1D,
F1A4,
F8A8,
FAC8,
0024,
02CF,
FE15,
F9B3,
FC6D,
FCB1,
FAD0,
EDE6,
F086,
FD15,
EFB4,
FC8D,
088E,
F637,
065D,
F3B2,
0493,
FCE6,
F6E3,
02A7,
0261,
02EF,
FAEE,
FAEC,
EC45,
0592,
FA99,
FF56,
0552,
EDC6,
FD9A,
E93F,
FC00,
02C9,
FAB2,
FFDF,
F7AF,
0655,
F601,
F563,
F530,
0238,
02B0,
0539,
030D,
FCC4,
0410,
FD97,
0549,
F77C,
1076,
0176,
F7C0,
F626,
FC56,
03FB,
F4C0,
FA70,
F066,
F7A1,
FFC7,
0160,
F75B,
1014,
04B8,
F32F,
F37D,
F724,
F44F,
FEE6,
F9C9,
F9DB,
F373,
041E,
FE6E,
F74A,
F924,
EFAF,
FAB1,
047C,
FDA2,
F1CE,
0612,
EF03,
FFA0,
F93A,
FBAC,
F942,
05EC,
E735,
F1B7,
EF25,
EF5C,
F6BA,
ECBA,
E2C1,
F128,
EBBE,
FD7B,
F40E,
F9B1,
FEBD,
F611,
F752,
0563,
F42B,
01B7,
EF8C,
F150,
F5A1,
F6B8,
F3A7,
F2C5,
FC91,
0BAF,
ECC5,
F2B9,
F17E,
0560,
F1EA,
FBAB,
F4D6,
FFEA,
E2FD,
F09A,
F940,
F616,
FC35,
0262,
F4D3,
ECBD,
0342,
FB40,
F6DA,
FCEF,
08A4,
F087,
FB8F,
F28A,
F36A,
0F99,
F8C4,
0BA2,
FA96,
F9D7,
F8E1,
017D,
D7E0,
0639,
EDCC,
EDBD,
E536,
E84B,
F181,
F6B9,
F7B3,
FCAE,
F566,
F4DE,
F464,
F785,
E0E9,
0211,
EFC0,
F495,
0353,
F3AE,
0A84,
E91A,
F853,
F89E,
1674,
FF67,
F81E,
0611,
FBE3,
FB8B,
E3BB,
F102,
E43F,
EA4D,
FC1B,
EA1A,
F086,
083A,
F2BC,
EB0A,
FDE5,
F668,
F04C,
F550,
E640,
FDA4,
F275,
F865,
EC79,
047D,
FA2E,
F864,
F4DF,
012D,
E656,
F3B1,
F7C6,
F598,
FD46,
F092,
D289,
E917,
ED56,
F47E,
FDD4,
0808,
F02D,
EFF0,
E1D7,
E383,
E7FE,
FD70,
F527,
ECA1,
1223,
FCD6,
F6E4,
F744,
01A5,
F0F3,
EB74,
F5A2,
EFA4,
F623,
FC01,
F10A,
FF5A,
DAEB,
E065,
D86D,
DEDE,
FF98,
F170,
F913,
E953,
FD33,
DC89,
E07F,
1027,
F962,
F7FE,
FC1A,
F6C3,
ED7A,
011E,
F8FF,
0157,
E74B,
F51F,
F628,
EE37,
FDF9,
ED6D,
E9AD,
F823,
F5CF,
E769,
D9D5,
E754,
F412,
EF23,
0252,
F63B,
F7A4,
EF8A,
EC89,
009C,
F69A,
EEF3,
FAB2,
1035,
F6C0,
0168,
09FD,
EA1E,
E7DF,
FDE2,
0316,
1157,
F9BB,
FFD4,
FE23,
0317,
E0FE,
D96A,
E82F,
EE66,
F8DD,
00A0,
1568,
F861,
F6BB,
0AEC,
049A,
01F2,
FFD1,
F8D8,
0204,
F5A2,
F4C3,
FC89,
FD36,
F863,
FBE8,
F036,
F5BC,
09DB,
F8DB,
21EC,
ED51,
05A9,
F421,
F398,
F819,
0F49,
F544,
0947,
15F2,
05D1,
0F29,
01D4,
0C46,
F078,
0D30,
0DB6,
F8CA,
062B,
0326,
F82B,
EF34,
08B0,
F881,
F426,
0AC9,
08FF,
FD3A,
0D8B,
0492,
F720,
E217,
090E,
1853,
2135,
0B46,
101D,
109F,
0B48,
1461,
0F32,
2133,
0F33,
09BF,
16D3,
090B,
184E,
FECC,
0AE2,
F787,
01F3,
FEBE,
01D3,
19A4,
FF46,
0754,
01FF,
FB51,
F563,
0C88,
F21D,
F588,
2C3C,
165E,
1927,
10D5,
05F4,
FBAD,
1F5E,
0825,
FBF9,
144C,
FAB1,
17EC,
13B5,
0CC6,
133A,
1033,
1E08,
0FD6,
1145,
FDB0,
0AC7,
0AC2,
0F97,
03BB,
FF65,
0EB6,
ED0B,
0658,
1737,
1DFF,
15E4,
2463,
1A85,
0654,
2093,
1CA8,
0BCC,
1775,
10E5,
0D7B,
08D6,
1D7D,
1619,
1F69,
14A9,
0269,
1A92,
0DBD,
2060,
1598,
0256,
08F8,
0FC5,
14E4,
1157,
16E3,
0E64,
15D7,
0887,
177F,
131C,
0F28,
1E62,
042F,
01FB,
0989,
FB67,
2279,
FEC3,
02A5,
0EAF,
0644,
1658,
0B34,
1A5E,
1461,
FAE8,
0AF5,
FB9A,
0612,
15C4,
1277,
1018,
053B,
1ACB,
10EB,
0D06,
06D6,
14DC,
165A,
07C7,
1152,
04D4,
1015,
1B18,
01BF,
13A9,
14F6,
10BC,
08A6,
111E,
1171,
F3D2,
0F7F,
1325,
1910,
0A00,
1406,
137D,
F6A2,
1153,
05AB,
0849,
0A5D,
0A51,
125D,
10E5,
0E1E,
18FF,
2381,
1A31,
F655,
0137,
FD9D,
EDDD,
09C1,
FDCD,
F3F6,
1A21,
0BB8,
18CF,
0FE8,
1310,
0B61,
14AA,
0559,
0B78,
FE2B,
230B,
EA55,
FC5A,
1033,
1614,
1953,
002A,
10F9,
1761,
04D9,
F573,
F2D3,
0BBF,
F0E1,
04FB,
F600,
01FE,
F998,
EF34,
FD49,
0B30,
0C1E,
0555,
0A71,
12B8,
EBF6,
FBCD,
FF00,
0760,
244C,
F952,
068C,
10A9,
06E6,
00F4,
007C,
067C,
0206,
0743,
1516,
06DB,
161D,
0770,
E7E5,
E791,
08BA,
035D,
FC43,
DFA5,
F080,
0770,
102D,
EEEA,
FD6D,
1672,
1A11,
074F,
08D9,
E97A,
005E,
03F4,
037F,
0B80,
FE6F,
FE0F,
F83E,
FDA6,
ED4E,
F14E,
FD20,
F95E,
F9C3,
0AAC,
EB83,
EB9A,
FB09,
E988,
F325,
EFE2,
FA6C,
F47C,
EF56,
FCCE,
1218,
0042,
E58C,
E0AC,
F615,
02F6,
F33E,
0812,
F6E1,
F77A,
E507,
FB11,
07BD,
EF19,
EE41,
F96C,
F555,
0BF7,
F8A1,
F286,
E78A,
FB37,
EAF3,
E722,
ED1A,
F082,
EE0A,
ED7E,
FD43,
DB52,
EC4C,
EADD,
E859,
FF6E,
FC15,
EF6E,
FBC8,
E907,
E6E1,
EF02,
F551,
F4E1,
E7CD,
0CBC,
FE7B,
EFC2,
F7B3,
FE01,
FBE2,
06E8,
F6D7,
EAE9,
FD04,
DA47,
F0F5,
F949,
1267,
F768,
EC2A,
ED4A,
EE61,
F7B9,
F199,
011A,
FE72,
0354,
F98C,
F7E7,
F803,
E84E,
F282,
1036,
004C,
0AE3,
FF29,
028D,
0792,
10E9,
FBF6,
F6D7,
F68C,
01DD,
FB57,
F9C9,
F20F,
FF59,
EE64,
FB76,
FAB8,
F206,
F77C,
03B7,
FD8D,
013C,
0379,
0139,
FF64,
E7DD,
FE3E,
FC3B,
FD9E,
EAC7,
01D3,
0816,
F752,
07EF,
F39E,
FA66,
F7E0,
099C,
0B21,
1332,
0130,
07F8,
FD61,
F3F1,
FDCC,
F711,
FA9A,
F5C7,
FD8E,
004F,
0BF9,
F5DA,
F1E4,
0657,
ECB3,
E53A,
E023,
E121,
D91E,
FD6B,
FC74,
ECE2,
FA4C,
F30D,
ED60,
F181,
05CC,
04B5,
0DD8,
107B,
0400,
0376,
F315,
F436,
FD82,
FCEB,
0734,
07A1,
006A,
F1C4,
0572,
FFE2,
ED7C,
FDD3,
10FE,
041C,
0F48,
167B,
0934,
0D42,
03B6,
F915,
FCBB,
04D8,
08EA,
F48B,
F89E,
FA94,
FBDB,
F72E,
FAA5,
FF5F,
0815,
065A,
0785,
0996,
F3E4,
F4D1,
09E0,
F1DA,
0370,
0BB8,
F57F,
FC66,
05D8,
0F13,
09D1,
086E,
1946,
0A3E,
0410,
10AC,
051B,
058E,
0FCF,
0AE8,
068C,
F5DE,
F922,
026C,
FA92,
0481,
0C53,
0C73,
FF3B,
0D9E,
08D6,
079C,
FFAB,
003C,
F4CF,
01F2,
0EBF,
014B,
15F2,
165C,
087D,
05FB,
0B67,
0120,
0496,
04B2,
09D9,
FE56,
FDFB,
FDB0,
07BC,
F2C6,
0348,
FE57,
FF04,
021B,
FF0D,
0CD6,
12C7,
158F,
17C5,
FA18,
01E6,
05BA,
1853,
122D,
0A3A,
FAF3,
3043,
1FCE,
0D2E,
22BF,
1572,
051B,
0DAA,
1124,
0F0C,
FBAF,
0267,
F1E2,
F919,
0FE6,
03B3,
097B,
0DC8,
0D08,
019A,
0AD3,
FF53,
17F8,
0C32,
156D,
1BE0,
0550,
0869,
1DF4,
1AAC,
0FF5,
16A5,
0F85,
1D4D,
1B4B,
2708,
1AA5,
0334,
0552,
06A1,
01FC,
0A53,
014B,
0F77,
FEB8,
0F6E,
0AF3,
0723,
FD21,
09FB,
1E39,
FBEC,
01F9,
02CF,
0BE1,
F9A1,
FB8C,
FEFC,
EA77,
02CE,
06BC,
03BD,
050A,
093A,
013D,
2089,
1805,
07FF,
02A2,
0356,
0EE6,
0767,
0A08,
107F,
F8EA,
0910,
F89E,
16F1,
041B,
05C1,
0426,
08BA,
EE41,
EACD,
ED84,
EDBE,
FC96,
F409,
0EA1,
0798,
12C5,
121D,
13FB,
1DA2,
138D,
F869,
F1FE,
1A66,
1A98,
158D,
0AA7,
FDC9,
09E0,
07F0,
0624,
FF4B,
0E7E,
1792,
10BB,
F612,
F838,
F119,
2EB4,
00DA,
050A,
0DAC,
1B3C,
0208,
FB55,
0D8D,
2AC0,
3473,
156D,
0ADB,
0698,
1A1C,
127D,
1410,
12C9,
0AD0,
0430,
1009,
08FC,
000A,
1F00,
12B8,
12F2,
14E3,
1A50,
1D4B,
07F3,
1EC8,
0A4B,
1FE1,
FB43,
1103,
171B,
0F6E,
0EEE,
252C,
1321,
0E18,
F3E8,
12F5,
1634,
09EE,
0B17,
0E13,
09A0,
096F,
0750,
0B4A,
089F,
0B57,
0603,
F7DB,
0D99,
143E,
FDDA,
05A0,
0F72,
0CD5,
0376,
09C4,
1668,
0D6D,
1809,
172A,
188D,
0A9D,
F9A0,
117E,
12DB,
0447,
07C7,
0780,
0523,
0AFD,
1F46,
0B82,
1336,
F91F,
016E,
1915,
1E43,
16D9,
05AF,
19D3,
1046,
16C1,
0EED,
0BD0,
F951,
19B8,
2149,
0505,
0E1D,
1724,
F775,
0D9D,
1D0B,
04C8,
10EB,
0215,
0486,
011C,
1062,
14EB,
0A23,
01B5,
018F,
1168,
01BD,
FC23,
203F,
0E55,
0771,
1A00,
139E,
18AE,
0EE3,
0C07,
1064,
1CC2,
08F6,
0F45,
F804,
0483,
1234,
044E,
038B,
10AA,
1F68,
01CC,
F606,
1C11,
01C8,
E994,
1C60,
0482,
05AA,
F865,
0C05,
0606,
06AC,
F42D,
EE48,
F3F7,
E807,
EE14,
0DFB,
2010,
04CA,
009D,
F51F,
0FFC,
FCF3,
FA98,
02DF,
1556,
25F3,
FFF4,
171B,
F858,
176F,
09B4,
F4F5,
FA71,
01CE,
ED9D,
F8CE,
F6F0,
EA0F,
F7CF,
E4EE,
EBF7,
F562,
F0C8,
07B2,
EF87,
0807,
0BA9,
FFBB,
0161,
FE47,
050E,
FD1E,
FFA7,
0DAF,
0A4F,
FB97,
FC80,
00B8,
009D,
FF11,
01DB,
E8B5,
F315,
FC23,
F804,
1EC8,
100F,
0E84,
F8A5,
FBEE,
F575,
EE1D,
0225,
16E0,
0A97,
FEC6,
FA55,
0201,
1926,
FCE0,
00E1,
04F8,
F891,
0097,
026D,
F3C6,
04E6,
0546,
F990,
F9EB,
F03D,
E551,
F85C,
0068,
07E5,
1294,
13AB,
0CE1,
FA36,
00F0,
F30D,
09B9,
EE38,
F762,
1083,
FBC5,
144F,
0B21,
FE2C,
0472,
136E,
F29A,
034F,
F3E9,
0894,
070D,
F031,
04D9,
FD54,
E4E3,
E9D0,
ED89,
01BD,
1EB1,
0D3A,
FA07,
02DC,
0BA5,
F301,
F6FA,
F115,
EF4B,
00C2,
04AF,
0C19,
1008,
FE2B,
03C1,
0837,
0CA9,
08A5,
06BE,
04C6,
0489,
DF67,
11A7,
064A,
E615,
0ECD,
F641,
10DC,
16D9,
FBB6,
012F,
0690,
FF03,
FF6A,
ED43,
FCF0,
04FF,
F6B7,
1264,
0BF0,
0CB9,
FA45,
053C,
F870,
0881,
0BF3,
02FC,
1EF5,
F6B2,
074B,
0E91,
0B86,
FD6E,
F058,
DD9D,
E5E3,
FCC1,
10E1,
015E,
0AF1,
FEC5,
E572,
FCF9,
FE37,
FC3B,
0133,
07AC,
087B,
06F1,
EEC4,
FE3C,
F545,
F366,
0F38,
F7E5,
0776,
E445,
199A,
FE53,
0B1A,
0259,
0218,
F872,
F252,
0EAF,
FCEB,
11CD,
F2A7,
FCBC,
FDBC,
01EB,
F442,
FA07,
F822,
116D,
1F76,
0BBD,
F2FF,
0BE5,
EE57,
F167,
067A,
18C8,
04CA,
FF0B,
F848,
0281,
FB5E,
FB5B,
F8D2,
FDCB,
074D,
0DE2,
105B,
F946,
054B,
F731,
027E,
014A,
F552,
EADC,
F415,
FD55,
0F47,
F887,
0084,
EAC9,
F567,
F0B8,
EFB1,
DB69,
D871,
F5C1,
F5C1,
E6A3,
F845,
F5B0,
ECEE,
037E,
FFEA,
FFA6,
08A7,
FDDB,
FC05,
E293,
F8C5,
F768,
F1B9,
FCD9,
015C,
FFEB,
0B92,
0818,
F5F0,
EAB6,
E06F,
F6B3,
E17F,
FAB0,
E2B2,
EC5B,
FA7A,
FF49,
099C,
FCC4,
1251,
1199,
FE9D,
0EF4,
F94D,
010C,
FFFB,
01DD,
08D1,
0117,
F490,
F696,
FC54,
FFE4,
07C3,
14CD,
FDB3,
F562,
07F8,
0A19,
0176,
F628,
0969,
13DC,
014B,
070C,
FD87,
02BA,
18C3,
099F,
1348,
F799,
F881,
01A1,
0059,
FDBF,
0785,
08FA,
0860,
0809,
09BA,
096D,
F3F5,
FE7A,
02E0,
1234,
1B47,
1095,
062C,
0745,
1AAE,
1606,
16E1,
0C96,
0DC0,
FE13,
2E50,
13DA,
088B,
FD53,
1487,
0E36,
F73C,
13B0,
F5C6,
0187,
08E1,
0FC8,
0689,
0867,
FB31,
0055,
F822,
05FA,
FD06,
0E09,
0752,
1323,
1542,
2193,
1361,
0F79,
17F1,
20A8,
089A,
0C60,
1052,
2388,
25BA,
15DA,
0938,
064F,
07EF,
1502,
0D50,
0CAD,
045F,
FFE9,
05F2,
0039,
EED1,
0871,
0916,
0D94,
11A8,
0604,
0D69,
0E13,
0B0A,
1476,
196A,
1A25,
0B25,
11F5,
13F8,
1D56,
12CE,
1E6E,
1495,
130E,
06BD,
FEDF,
F736,
F862,
FEC9,
0038,
06DC,
F507,
F7B9,
F84B,
0DCB,
1B38,
1882,
0B7A,
0956,
0D1E,
1375,
1C86,
1B18,
1CC5,
0A00,
09EE,
1270,
0C61,
068C,
0322,
140E,
021D,
021F,
FF2C,
02FB,
0148,
FD81,
008D,
02E9,
F69F,
0360,
055D,
FF4D,
FDAF,
FF8E,
FE6B,
ED54,
F323,
042E,
0FA4,
0B22,
19FB,
123E,
FF9A,
01B3,
F838,
FE44,
0457,
F93B,
05DC,
FA75,
03F0,
FBF3,
FFD2,
F512,
02FF,
07FA,
F4D7,
0714,
FAAC,
F889,
FE65,
0CB7,
E8F2,
F973,
F2E2,
0071,
0459,
0B48,
0614,
0E28,
055E,
01EE,
FFE5,
02B2,
F8C5,
F55A,
F44B,
059D,
0497,
07AD,
008D,
FC88,
F8D0,
F950,
FD6F,
FF99,
FA2A,
08D2,
0F09,
00E9,
FAA0,
F4BA,
EF74,
F9FA,
0753,
07B2,
F2BB,
FF55,
0BC5,
03BF,
F2E2,
FA3E,
007A,
FC93,
011B,
F0D7,
F9C1,
F2E4,
0527,
0108,
0062,
FE46,
FDCC,
FA86,
0508,
126C,
FE87,
F864,
FB99,
FF45,
0899,
13A1,
0E2E,
077C,
1206,
FEEA,
1A94,
09C9,
0F76,
0A9D,
0BB3,
FFF1,
0D15,
07AA,
FD2B,
F466,
0233,
03DE,
0220,
071C,
09AD,
0274,
03AA,
10B7,
0DA4,
F749,
FB56,
0142,
1675,
059A,
148A,
087F,
014A,
FF94,
05F3,
F460,
F81D,
FF44,
F302,
E9B5,
F338,
E8D0,
F689,
F4F9,
01F7,
0060,
EFFD,
0203,
0368,
010B,
FE43,
1463,
0F8C,
02CB,
102A,
157D,
FB21,
0FB4,
0913,
09A8,
0B39,
0061,
FF32,
1062,
FF71,
F78F,
F75B,
0847,
F6D0,
F073,
EB63,
FB3D,
F90D,
EE49,
EAA4,
F1D0,
EC38,
0027,
F019,
002B,
FF44,
F5BC,
F5C5,
E88C,
0482,
068F,
0089,
0AEB,
0A34,
0528,
F4BC,
1017,
F354,
E8B0,
F2A3,
E8C5,
F436,
D834,
E7D3,
F66F,
F2A4,
E6CA,
DC2A,
CDE2,
CEA3,
DBE0,
D887,
CE45,
C72D,
D5A6,
E4CE,
F269,
F313,
01AC,
FCDC,
05F4,
F940,
FCC4,
0F93,
0448,
FD4F,
F3E6,
FD59,
0129,
E4A5,
DFA6,
F3C8,
EF4D,
F6F0,
E001,
D9BF,
C58F,
D118,
C5BA,
C917,
C448,
D313,
DC24,
D564,
E133,
E989,
F2D6,
0587,
F59B,
0C90,
FE94,
0494,
F730,
F80C,
F226,
01C4,
EB40,
E63D,
EE03,
F92B,
F59D,
FFD7,
EB66,
D671,
CABF,
C520,
CE55,
D056,
C6DB,
DADF,
D5B4,
CB76,
D5D3,
D388,
DF56,
F2CD,
F544,
02C4,
EC4F,
EF82,
F1AA,
DEBA,
EA1B,
E3C5,
E2B0,
D8BC,
F0BA,
F431,
F799,
051E,
E237,
DAF4,
E9FA,
E2FC,
DCDF,
E7BD,
E25B,
E54E,
E05E,
C993,
BB65,
D4A1,
D047,
E10A,
D85F,
E7C7,
F387,
E6CF,
E6B0,
DF24,
D1AD,
D923,
D46C,
D42F,
DE31,
F7AC,
F971,
F3B8,
F935,
FB7E,
EDDD,
1445,
05A2,
F734,
F5E2,
DFA4,
1528,
0298,
E47C,
EA09,
F5D6,
E879,
FAB9,
E87B,
F064,
DFDB,
E248,
D44A,
E187,
DECD,
D2A6,
DE19,
D0A9,
FA72,
FDF5,
F98E,
F75D,
08A9,
08B2,
11B3,
12E7,
0C73,
0E9F,
0D28,
0D40,
05ED,
10D2,
0514,
11A9,
180F,
0D30,
F5D0,
0B80,
E128,
FBAC,
ED48,
EC0E,
E7DC,
E307,
EB85,
F58A,
FE35,
05CE,
FC42,
0757,
0E0D,
05D2,
1992,
1836,
0B3F,
1D83,
06E9,
16DF,
1347,
0D8E,
091E,
1105,
137D,
FE18,
00DE,
0AEB,
F0D0,
FFBD,
1069,
FFF8,
0BD6,
123C,
11E7,
14E3,
092B,
F628,
F977,
124D,
0F5B,
2379,
148F,
15A5,
2808,
250A,
0ABD,
18F6,
0E30,
07EA,
02ED,
1B47,
F590,
1400,
0DAC,
0E8A,
FA8D,
04B1,
0D45,
002C,
21BD,
1957,
0D1D,
0968,
0E0D,
0029,
0662,
14AA,
0F62,
1C0A,
0FF3,
FAB2,
0746,
124C,
1E37,
1479,
17E7,
03BF,
0754,
16DE,
062A,
07A6,
00A8,
FBDE,
0261,
0463,
0495,
F68D,
0BDC,
042E,
15D6,
0A9B,
04E5,
050E,
1060,
0DFC,
169A,
1CA7,
0B76,
07FD,
1934,
035E,
0F2B,
0CF0,
007E,
FC92,
09DE,
10C5,
00BF,
0967,
0106,
063F,
0F73,
150F,
103E,
0376,
11C0,
FDC7,
088E,
1185,
11B8,
0F2B,
FE70,
0E21,
FC0E,
0F06,
181E,
0DEA,
11DC,
118B,
F666,
0EA2,
0735,
05C1,
042A,
F976,
058B,
0D29,
04DC,
10EE,
FA6C,
F5DD,
FDEA,
0DBE,
02BC,
F320,
07F3,
064C,
F9A1,
FDFB,
00FE,
1385,
04C3,
149D,
01E8,
03BC,
04FF,
19AA,
13AA,
091A,
113D,
FE8C,
F6CF,
04BA,
0266,
FB07,
F9E9,
EF47,
0373,
FEF2,
FDAA,
FC25,
0CBB,
F2BF,
F96D,
FC6D,
FE82,
0980,
0DBC,
121F,
1927,
0FF0,
02BE,
0015,
EF61,
08BB,
0BBE,
FACF,
02A7,
035B,
090B,
FF7C,
0CB9,
F936,
FA95,
0A66,
EC81,
1F1B,
F922,
FAD3,
03B4,
00B3,
EC48,
FAFE,
FBB0,
FF3D,
FE05,
0870,
084C,
07DA,
022B,
F8D5,
1936,
0220,
FEA8,
FB88,
0651,
F1FD,
F74A,
FEEB,
F643,
FE75,
17B6,
0867,
F449,
F694,
FB91,
0752,
F80E,
ECFB,
F38C,
0668,
0325,
0114,
08CC,
0D0F,
0B15,
0E0F,
00EA,
EFEF,
0940,
0D65,
FBF7,
F38E,
05C2,
F8FF,
071E,
F6F7,
015E,
0169,
F89A,
0CFD,
0B97,
032C,
F69C,
F395,
01F4,
FDCF,
032C,
071B,
06C4,
0835,
FAE6,
1C0F,
0800,
05CE,
03FB,
037B,
FF63,
FE48,
FBF5,
0A48,
0816,
073E,
FD64,
F96C,
06CD,
05AE,
07BD,
F979,
047C,
0D5D,
FC01,
FC9D,
FC0C,
07D2,
FA67,
031D,
FF74,
0095,
0AC6,
112E,
10E3,
0DBE,
1160,
01B7,
03B9,
F2CB,
09D6,
0C78,
F2EF,
0516,
FC88,
FC63,
F873,
FDB1,
0070,
FFE4,
FB1E,
0EBF,
0F1D,
1104,
0176,
017F,
03A0,
F442,
0592,
0382,
F968,
1103,
0BE0,
0744,
0D02,
0B81,
0EEE,
0580,
03C6,
0C99,
04EC,
16A6,
08C2,
061B,
F483,
1088,
F6C3,
0074,
0480,
0E3A,
0A3F,
27C6,
0A21,
1115,
F9C3,
04C3,
064E,
004C,
0653,
F9D7,
0CE2,
0208,
00EB,
1755,
0D59,
17FB,
0C15,
FB76,
0364,
FB76,
FB97,
0C6C,
F497,
1096,
F893,
0300,
F12E,
FDE6,
05C3,
FDC9,
1C78,
1494,
096D,
F635,
FEFB,
002A,
0237,
0681,
008D,
02AF,
1261,
0588,
FFB4,
F8F4,
0E6D,
0F38,
0573,
064A,
F781,
008D,
052C,
EC89,
01C8,
0F90,
0528,
0C25,
F9BE,
0127,
0869,
FAF7,
F339,
01D3,
FD1D,
08FB,
07B7,
FB7B,
F8E6,
0BEC,
09D4,
13A0,
0E8E,
1E15,
1C84,
060C,
12B8,
FD83,
0683,
027C,
F67A,
090B,
048C,
10EE,
10CC,
097E,
FA35,
FA8D,
F591,
F9DF,
F4D1,
0197,
0733,
F983,
0436,
FDFD,
017B,
02F5,
FD3D,
08D2,
F51E,
F74C,
F5E9,
FF44,
F91F,
F636,
F939,
02A2,
FBC8,
F57D,
E2E4,
FB2D,
F71F,
0094,
FFBB,
04E0,
FD73,
0911,
FC0D,
01C5,
FADE,
FF9F,
FE4E,
0190,
0470,
02A5,
FD7E,
00A8,
0074,
F3AE,
F096,
F05C,
ECB5,
FD87,
FBB8,
0424,
FA24,
F095,
FB35,
03BB,
FE08,
FD7D,
04CC,
12F7,
14C1,
03A1,
FBE5,
01F9,
063C,
FE96,
FB1D,
FD5B,
021B,
FD65,
06D5,
00AE,
0B59,
016C,
EF03,
F12E,
0300,
FB10,
0935,
F060,
F4AE,
F834,
F250,
00AC,
01E8,
0584,
066A,
0657,
0D00,
1851,
FABC,
FA33,
FE76,
0754,
0101,
023B,
0F81,
FF78,
0DC9,
10FE,
1032,
08CD,
F676,
EED3,
F0E6,
FA06,
F966,
EAC1,
DE51,
F5A3,
F3F7,
F6FB,
0A3B,
1284,
0C6B,
08F9,
FD23,
11AE,
09E5,
FCD5,
1321,
097E,
03AD,
FDD0,
08AB,
0ECB,
FD0B,
FCE4,
03AA,
0375,
F876,
F808,
EB00,
F721,
F8C1,
EF76,
F228,
F0CC,
E39B,
E85F,
EE51,
FFAB,
09A7,
09B0,
FAFB,
F54F,
09CA,
08FB,
110B,
0A71,
0DA3,
0189,
FFA3,
FE9A,
0AF6,
FCEB,
1150,
FAC4,
004C,
F538,
ED57,
F7B1,
F9C2,
F56F,
E763,
E7BA,
E813,
E9A1,
0A10,
1E2B,
06B8,
FAC6,
0459,
EC33,
FF47,
11FA,
16CE,
0285,
1177,
FD32,
FD19,
0D6B,
FFCC,
F548,
0E5C,
0DCD,
ED58,
0926,
0AA5,
F828,
F9D9,
F431,
EDDD,
E12B,
B72A,
E849,
173E,
09DF,
1C8D,
06BF,
F7D6,
0179,
0EB1,
0427,
07A5,
1632,
09E0,
0A8F,
0DA2,
0740,
02C3,
11FA,
FDEB,
159A,
09C7,
0365,
FAA7,
FB57,
E9C5,
0195,
E59C,
D096,
D658,
F3DA,
FF94,
0F8D,
02BF,
ED60,
06EC,
0751,
084E,
0CD1,
FC5A,
14EB,
1315,
FE15,
1363,
15F5,
1D56,
106C,
FE12,
1734,
0DD3,
F4BE,
1179,
FE3D,
008C,
0918,
EB19,
CA5C,
C355,
EF03,
02BC,
0BB9,
E65A,
01D0,
F878,
0844,
088A,
10C8,
07BD,
1431,
1B4D,
0E27,
164D,
1E35,
0D0B,
0493,
0010,
0084,
FDA9,
0697,
FFD2,
0652,
095E,
0C73,
F47F,
CEEE,
AFF1,
F9DE,
26BC,
10DC,
FBAC,
14FA,
03D5,
FA49,
0276,
FCA8,
FBE5,
0041,
0DEA,
0529,
0230,
13CA,
0948,
11E7,
0B92,
F1F7,
F762,
0C2D,
0D78,
FEEB,
0B99,
17A5,
015D,
C33C,
B259,
0E6E,
145C,
FB2B,
096C,
13B1,
0D52,
F5BF,
02A2,
024F,
FB9E,
FF70,
F9DF,
F9E1,
0BF1,
0E8B,
1F0A,
F1BC,
18D0,
0453,
FAD4,
001F,
0A4B,
0677,
0E33,
3216,
E7E9,
A2B2,
AED1,
0B50,
132C,
0C31,
0C4B,
0303,
02BA,
F6E5,
FF93,
0123,
0500,
F06A,
FA89,
059C,
FA40,
1048,
04A7,
F5F2,
F11C,
FB0C,
0174,
0A04,
0889,
0D0C,
1DF7,
1C4A,
D9BE,
C585,
C178,
0E6B,
2160,
028D,
0CAD,
EFBD,
FD37,
0472,
079A,
EE6F,
FB04,
FC0B,
F6FA,
00C4,
FF4C,
EF7C,
F8DD,
F64C,
F68E,
FAD6,
F756,
02F4,
0E51,
042F,
0861,
F449,
E5A7,
B027,
DCB1,
026D,
167F,
FCC0,
0E3E,
FBAC,
0072,
00C7,
E087,
FE05,
02E9,
F497,
019B,
F868,
F6C9,
F01B,
EE65,
FD98,
FD9F,
04EE,
F4CA,
03FB,
0430,
0349,
0909,
E980,
D166,
BF30,
F31C,
1180,
0C51,
0531,
1258,
0E79,
0657,
0865,
04FF,
16D7,
0E87,
06A2,
0E39,
F88F,
F82E,
E66C,
FE60,
0CB9,
0791,
0E1B,
00F5,
089A,
FB37,
FD0F,
F055,
E080,
C746,
DAB0,
01D8,
FF1B,
0A97,
12DE,
147F,
0A5C,
0DD7,
0520,
1D63,
0A48,
0CA0,
1617,
1818,
F7C6,
EFFD,
EB45,
F60F,
0544,
0E73,
14DF,
15C3,
0333,
FC4D,
FB72,
EB1F,
CAEE,
B930,
FE89,
0C21,
02EC,
014D,
EFF5,
F99A,
FB55,
19D6,
09CC,
14F7,
FE2B,
1136,
115E,
0CE6,
F5EC,
F50B,
FDE9,
EF85,
0654,
0005,
0AB1,
F9A9,
F746,
042B,
ECEE,
D1C3,
BB8A,
CC00,
008A,
FDA7,
0B02,
0F45,
12C2,
0BA0,
0713,
06AB,
01D9,
FBDA,
F742,
FAA8,
F215,
FF76,
F17C,
FC5B,
E9BF,
F46C,
0BF4,
E254,
F379,
102A,
0060,
E8CC,
D797,
C47D,
C337,
0775,
182A,
F99F,
01A2,
0F62,
0041,
0A75,
0B40,
0F75,
F8E7,
0066,
F5A3,
0598,
0566,
0102,
F5BC,
F1FD,
FA2C,
F0F3,
F13C,
EED6,
E654,
D3DE,
E20A,
CB98,
B73D,
A0ED,
EEBE,
040B,
12AE,
047F,
1748,
FF68,
0C25,
159C,
0F24,
0C4A,
EEC7,
0762,
FFD2,
F866,
0604,
F8A8,
0311,
F223,
E8E3,
F31A,
EA46,
DC9D,
D9F8,
D0DD,
D317,
BE17,
C0C4,
CFB6,
0364,
0BC4,
0EB6,
0E00,
0744,
08EE,
0879,
1282,
0B33,
0A8B,
FB16,
04C5,
0AF0,
02E1,
03FD,
FC7D,
0686,
F51C,
EEE2,
ED82,
E553,
E940,
E4DE,
DD11,
D8F3,
CB0B,
DEF6,
FEBD,
1A59,
10BC,
117C,
0D3C,
0479,
1FB7,
001F,
1062,
04D4,
FEA4,
07C8,
13B6,
0314,
06B2,
FB8C,
FE8F,
F650,
FBE7,
EC96,
ECEB,
F5D5,
E69F,
E69C,
E320,
E415,
0088,
EF48,
06D4,
1A30,
09C5,
FC44,
1448,
FC70,
1829,
0E76,
020A,
1456,
00EB,
0C72,
1182,
036D,
F551,
06B6,
070F,
FCA0,
FD35,
F5D8,
EC42,
FEFE,
EFAE,
E794,
E269,
F332,
042D,
FF88,
F1E3,
0338,
065E,
F674,
1BB6,
FD22,
0268,
0B54,
0C2D,
04F6,
109B,
0C22,
1ACE,
0FF2,
00E0,
FDAC,
0A4B,
F970,
F9CA,
022B,
EF94,
FE3C,
EF1D,
F126,
EE34,
F770,
0DD4,
05AA,
EAC0,
04D9,
101A,
158F,
01B2,
17B9,
1101,
1081,
077A,
10AF,
0B90,
1329,
110B,
0672,
F896,
0040,
0211,
F77D,
091F,
0222,
F584,
FE36,
FF59,
0111,
FF5E,
0C5C,
0040,
065E,
F239,
1411,
0228,
0271,
03DC,
02DA,
FD0C,
1021,
FFC2,
F0C9,
0F83,
093D,
088A,
FC71,
FF86,
FADC,
0082,
F73F,
0582,
FC04,
F88D,
05E5,
FC7A,
08C4,
04A5,
0ABE,
FC0E,
FC64,
033F,
0261,
FB22,
FE5E,
0BCF,
0090,
016B,
F7FD,
0D05,
1671,
F81F,
0FCC,
F75B,
0665,
FB5A,
FF39,
0204,
0747,
FEBE,
03F2,
FE8D,
038E,
F9D5,
FE79,
F9EF,
0A2A,
0372,
0D9C,
10BD,
01EB,
0AF4,
0151,
01E2,
1633,
F000,
F33B,
FFED,
0FFD,
078F,
FDC6,
FC7B,
0C3E,
0269,
08E6,
F2AC,
06A4,
047A,
FF2D,
F67D,
F8BA,
EB8C,
FE43,
FE1C,
F083,
FBBD,
F4DA,
E8A5,
E5DA,
EAAA,
FBE7,
FFA9,
F374,
EDE9,
EF38,
EFFB,
F2A6,
FEE9,
FC66,
0135,
0437,
FBA9,
FED0,
FED9,
F95B,
F577,
FCFC,
0398,
F5D8,
F5ED,
F125,
F598,
E5A0,
EA25,
E266,
E3CE,
D2FC,
F020,
E2D6,
E47F,
E4BD,
E3F1,
ED04,
E11D,
FCE1,
F767,
F66F,
FA80,
0214,
FB7B,
0736,
04D3,
0AFA,
02D1,
F690,
F550,
F3A8,
F25D,
E569,
E21E,
E17D,
D638,
D2B1,
D480,
D11E,
E123,
E7BD,
D78E,
D590,
E092,
D45B,
D882,
ECE2,
F065,
04DC,
08C6,
FADA,
0191,
043A,
0AC8,
0273,
FD0E,
0192,
F8E1,
ED89,
DFC7,
E1E3,
D016,
DC3A,
C218,
CA83,
B84A,
C609,
C505,
CD8C,
CA3B,
CB15,
C324,
CD1E,
DAF6,
EAEA,
F960,
F695,
FCB1,
F65A,
0435,
0394,
F789,
F82D,
033E,
F82F,
F73D,
E9AC,
D8E2,
DD39,
D7CB,
CCD3,
C456,
BF45,
BD32,
C0FA,
D542,
D3E3,
DC9A,
D12E,
E58D,
D88E,
D90A,
E004,
0155,
0638,
0680,
01F4,
07DA,
FED2,
FD0D,
0365,
FEC9,
F63A,
01E3,
E9F5,
EB40,
F25B,
EE0B,
F157,
DFA2,
E730,
F44C,
EF27,
F0F7,
E28C,
F137,
FBFB,
09FF,
F5D0,
FB35,
0693,
FB98,
1737,
0EDE,
0CB6,
148B,
F64C,
F88E,
0912,
0996,
0007,
F571,
0840,
F44C,
07EC,
E9A4,
0481,
F63E,
0A69,
06F9,
F8E1,
0150,
F5DE,
F7A4,
ECD7,
09C1,
EF86,
02DF,
0233,
04FF,
F9E4,
05FD,
11BE,
0515,
0796,
052C,
0134,
0D86,
09C3,
1594,
1110,
F89B,
1575,
1C9C,
20C2,
0EE2,
124E,
0BD1,
179A,
FDB0,
1159,
03EF,
F1B0,
FA96,
06D5,
0B9B,
1B54,
071D,
F816,
FB1B,
0699,
1549,
0C25,
F5B0,
0F23,
176B,
1848,
1191,
1576,
1FBB,
11F9,
0ABE,
0B6C,
05C8,
0F4D,
16AF,
15E8,
21BE,
1151,
FDD8,
0E75,
0859,
03AD,
FFF9,
F546,
F76E,
FBA4,
FFED,
F989,
029F,
FE4B,
F8FF,
0FC5,
0728,
082C,
091E,
148D,
1C9E,
0E5B,
1DE6,
2567,
2A6C,
1EC4,
1800,
0F7C,
1EE5,
1DD2,
1792,
201E,
1716,
FDF2,
FA1A,
F70F,
FCFB,
FCC5,
F7A4,
F1AD,
FD98,
F712,
F6FE,
FEFB,
0AAC,
08FE,
0F0B,
15AD,
1C92,
2767,
119F,
1061,
137A,
13DB,
2033,
11D1,
2728,
23BF,
0FD1,
0F98,
0B4F,
0209,
FC50,
187E,
0626,
FB20,
F7CA,
F1B6,
F95C,
F5F9,
F591,
03ED,
09D4,
0483,
01A2,
039C,
FD76,
0737,
F2AC,
08CE,
0696,
04E3,
0ADB,
FE1A,
121A,
0BCD,
016B,
FC05,
0CAA,
1DA0,
0C57,
F889,
FB56,
FB57,
FBE3,
0054,
032C,
003E,
0386,
122D,
0D95,
F720,
0583,
F361,
FFCB,
F7BA,
FA9D,
F835,
FBA3,
FCD3,
0482,
F1E8,
F132,
E7EE,
FD33,
0615,
F506,
FBC4,
FF5D,
0335,
FFCD,
0148,
01B1,
FA87,
036E,
FF70,
055E,
09D9,
08E5,
FFDA,
F6AE,
D681,
F081,
F5ED,
0055,
FD2C,
EF5A,
F735,
EDD7,
FB3A,
F6A3,
FC76,
F269,
F4E0,
F7A1,
FFD6,
F99E,
FF08,
0A40,
07BC,
FCD5,
13F0,
09BF,
0E8E,
0E81,
FC6E,
0CA5,
02E2,
015D,
F587,
E42B,
FE7E,
F5BA,
01F3,
0A2B,
02A7,
FE05,
FEDD,
F59B,
FA41,
F299,
EFCB,
F6F3,
EA71,
0041,
F5EB,
0FFE,
FC79,
0A17,
18FF,
06F6,
07DA,
0C45,
0173,
0701,
F718,
060D,
FA88,
0E5F,
063B,
FECF,
FA85,
F9D2,
0245,
0762,
FCC2,
FADE,
F30F,
F310,
F0D2,
DF60,
F9CA,
EC9A,
F97B,
0078,
0BBB,
11A8,
0D8F,
04E0,
F2B5,
F55A,
0250,
F558,
0054,
0198,
098D,
F266,
F0E4,
F567,
F8F4,
FB83,
0BF8,
FFD5,
F3A2,
FCEA,
E0C1,
DF05,
F194,
F871,
03B9,
F754,
F5CE,
12AB,
1191,
FD7F,
114C,
FA7E,
F808,
F047,
FC36,
F469,
F5EE,
07DF,
02A6,
02C4,
0DD0,
08DC,
04AD,
0D92,
0B1C,
02EE,
F45A,
E458,
F560,
E168,
E3FE,
FD0C,
E96C,
EEEB,
12AA,
08D8,
07D3,
09EC,
0929,
F768,
FA21,
ED9D,
F5D9,
F31B,
F4D2,
FC6A,
FEBB,
0240,
F35B,
F3FE,
02BD,
E92D,
F7B0,
FB96,
E131,
EAEE,
F4BC,
FBF1,
F992,
006D,
FE7F,
0E2A,
1B3F,
0A94,
098F,
134E,
FAB3,
F5E5,
F516,
E564,
05C8,
EEC7,
E7DD,
EEE2,
F538,
DCCE,
C7E5,
B8DD,
C35B,
C4EB,
BABE,
BEF6,
DAEC,
ECA9,
F635,
FA25,
F2B5,
001D,
FE11,
0892,
04FD,
F834,
FF28,
013A,
01F5,
FBB4,
FE8E,
F555,
F957,
F418,
DF53,
ED79,
F322,
D82B,
D202,
ED89,
DD48,
D209,
C5C0,
DC48,
E3DD,
ED46,
ECD1,
0429,
087C,
0C51,
0101,
1310,
057B,
FE38,
083C,
0016,
EB50,
FA67,
FAFD,
F7E1,
FECA,
FDE2,
F1E8,
EA64,
F45E,
ECFF,
EE67,
E8C9,
EADB,
ECA9,
05BD,
051D,
0EC3,
0C0D,
06E6,
0253,
01EC,
F886,
0A2C,
018A,
F9CF,
F1CB,
0561,
FE29,
F8D8,
F80A,
EE1C,
F94C,
0C2D,
F95F,
F323,
EFFB,
E90F,
D8A0,
EAED,
F0E4,
0276,
14ED,
1B3B,
126D,
1CF4,
0378,
06B8,
0079,
F999,
F5D8,
01D9,
0CD6,
085C,
F4EA,
F568,
FB10,
FC9D,
F95C,
F00D,
029F,
FFD8,
0254,
F51C,
FBED,
F2AE,
EAE4,
0934,
1AD5,
1DF4,
1DCA,
280C,
18C0,
F95B,
1172,
0DF7,
FC21,
0AFB,
EBF2,
F3EB,
DC33,
F28B,
E5A8,
F16E,
006D,
0922,
EF1E,
F8EB,
F6FE,
01A0,
FE3E,
021E,
FF50,
0D04,
0437,
02FE,
11FE,
2929,
0D75,
10A7,
020B,
08F1,
FF87,
0088,
FFCC,
0A5D,
04C5,
F84A,
F63C,
F73F,
D67B,
ED0D,
0B87,
0511,
019E,
F8D2,
F48E,
072D,
05F9,
108D,
0049,
058A,
0E6A,
1933,
1C55,
264E,
03BD,
F062,
0ACD,
0AF4,
014D,
FFBD,
E4E8,
00AF,
03E7,
EF58,
1118,
EDCA,
F2D7,
F60F,
1185,
FA25,
F468,
F7E6,
07DE,
FD0A,
FDB8,
0CD0,
FC74,
116D,
02B6,
150A,
10ED,
10DA,
16B7,
1F03,
22ED,
053D,
20EE,
2AF3,
1658,
0E38,
0EAF,
F87E,
0898,
FFE5,
0386,
0283,
FF76,
F7AB,
FB72,
0127,
0A06,
FCD0,
03F5,
03D9,
0432,
FDA6,
0C02,
1046,
F89D,
E266,
E656,
F914,
F5E1,
F825,
FCC7,
F65F,
FE5A,
07BB,
04E6,
0500,
0974,
02E5,
0A76,
05F1,
025C,
F7F6,
026B,
01C2,
FBD4,
07FE,
FAE7,
03F3,
085B,
FEF8,
0323,
F946,
027E,
0804,
FAC6,
00E5,
0694,
F276,
FF61,
F195,
0722,
082A,
0FA3,
0934,
F42D,
0920,
0923,
FE8D,
FABB,
0568,
FBC8,
06BF,
FA89,
0815,
FD60,
0323,
0699,
F962,
0569,
014A,
079B,
F6DA,
FE28,
FED5,
F991,
0C84,
062D,
05A5,
F798,
F5EF,
0582,
FC50,
F19B,
ED64,
0126,
0538,
0812,
01FB,
FA28,
F8CA,
FC46,
FEFB,
0950,
FB1F,
02CF,
FF2E,
FA85,
FE23,
F9C3,
00D6,
0030,
04E9,
0325,
0FE2,
FE2E,
0C77,
FB30,
F707,
EC61,
E495,
F1DF,
EF17,
FEF2,
04EF,
0B0C,
F9A6,
F624,
FB5B,
0CA5,
F73A,
F7AA,
FDDB,
FFAD,
EFFF,
FC84,
0166,
F3D1,
0076,
FD50,
0F67,
EAE4,
F282,
FAFE,
E5A7,
FC54,
EF0F,
ECDB,
054A,
F1C8,
FD72,
08C2,
01DE,
FFA3,
0A02,
01AB,
0F19,
0F5A,
FEDB,
0694,
F9FB,
F2F7,
F14E,
E735,
FE82,
F823,
0E6A,
FFCD,
008D,
2134,
F618,
FB77,
0789,
0091,
05A1,
FF28,
0CDA,
0789,
0B6C,
04A1,
FFA5,
13CE,
063D,
06D9,
0C65,
05E5,
F97F,
F3E9,
087B,
FD95,
FC0A,
F989,
E43F,
F808,
E6C9,
FD6F,
0BFB,
F89A,
F441,
FFE3,
1548,
FE0B,
16A4,
06D1,
085D,
01E6,
174F,
FF3A,
04CD,
1A76,
F792,
1CB7,
14C2,
109C,
FE30,
0019,
FB94,
0585,
F009,
E64B,
F7E6,
F84C,
0321,
FF39,
F634,
0D0F,
1586,
0094,
062D,
0CBD,
071E,
F7DA,
0E98,
0B18,
1510,
FDBB,
04A3,
26D4,
1C22,
1602,
08EE,
FCD5,
FAFF,
031A,
F473,
F426,
E972,
F255,
FCEE,
ECB6,
F797,
02FD,
F3A3,
01B0,
0AF7,
FCBB,
0365,
0904,
0B2B,
17C2,
15AD,
1052,
0A90,
12CD,
1F7C,
11FF,
1475,
1666,
0072,
0C2E,
FF04,
F42A,
F98F,
EDFE,
F7AC,
FED5,
08C8,
F1D2,
0036,
0837,
E400,
F20D,
FE0C,
00DC,
FAAD,
E921,
F06C,
0DD0,
F1BC,
F8E0,
1462,
045A,
0D4A,
1A5D,
0794,
0924,
1110,
0F65,
03CB,
F498,
F85D,
F14A,
0913,
0519,
1236,
FDB8,
F595,
EC52,
F62B,
FDA5,
F64D,
F8A9,
F48C,
FAE3,
FC86,
E7BF,
FC43,
E9FF,
E503,
EC52,
06AC,
F927,
1120,
0189,
065E,
0015,
FA16,
048F,
FCE9,
FBF8,
03E7,
F831,
0D89,
F75C,
F389,
F2DA,
F6C4,
F786,
FBCF,
0C7A,
119E,
F2AD,
0194,
E8A7,
D9F4,
E265,
C7BE,
BC28,
C3CD,
CCC2,
DD97,
FA0E,
FD3C,
084C,
F3FC,
FAA5,
FF39,
FF32,
F80F,
F47D,
F146,
EF63,
E48E,
E185,
E865,
F9EC,
0162,
FFC8,
1A9B,
0F41,
0913,
1837,
03BB,
E7DE,
D0D2,
CD07,
B4A3,
D68E,
D814,
E189,
0079,
FF96,
FA65,
FE27,
FB1D,
E146,
E884,
E6C4,
D65D,
E932,
EFC0,
FCD8,
EC51,
0971,
FEC8,
1E8A,
29C2,
0C3A,
17EC,
08B8,
0087,
1919,
052C,
DCA0,
C89F,
E796,
DFF0,
E6C7,
EBA9,
FA6F,
05E1,
FE38,
F491,
F107,
DC40,
D455,
D115,
E44D,
017C,
FE21,
F820,
F1BA,
13B2,
1648,
302E,
13D1,
0AE4,
0D41,
0C1A,
F9E6,
1013,
08AC,
E583,
DDAB,
F205,
F27A,
E93B,
F16B,
0458,
FC80,
E492,
E291,
E4C2,
D990,
E2D9,
DEFB,
E477,
F64B,
FA00,
FA45,
EAF5,
FECF,
21FD,
0518,
1BA1,
F5FB,
0C03,
07CB,
054D,
11CB,
ED36,
E694,
DBEF,
DBF1,
EE6B,
0367,
F291,
FF37,
F1BB,
F185,
EEA0,
FA93,
EC33,
D075,
CA60,
C7F4,
C67B,
C748,
EB33,
0330,
1609,
FFB5,
FE3C,
F62A,
F909,
056F,
0D76,
0AC7,
01D3,
DEE6,
DA27,
DBF4,
E231,
00FA,
F7AD,
F207,
F041,
F97B,
03E1,
01FD,
F95C,
F544,
CA69,
BF0A,
C55C,
BE8F,
E642,
D6EF,
ED25,
0042,
FF82,
121A,
1385,
11DA,
1489,
020D,
118B,
EC1F,
E1E3,
E0AA,
E449,
026A,
0339,
009F,
FE43,
03C1,
12D2,
0CA3,
13D8,
0ECB,
1A49,
F5DA,
E63A,
D9D3,
E72B,
E061,
F42D,
FA2A,
15B4,
1D98,
0EB2,
15E4,
0D8A,
FFC9,
E7DD,
00B7,
C791,
D6A8,
FC9C,
F7E8,
FD64,
F2E7,
FDF4,
0788,
1DC7,
19BB,
1B93,
090B,
13DD,
0F1D,
F95F,
FDBE,
F426,
EFD7,
03B5,
015E,
F206,
F644,
1162,
09BF,
0AC6,
1543,
F1E7,
E940,
D8E7,
F2BE,
F88D,
F835,
0028,
017B,
FEA8,
0597,
08BF,
07DA,
094C,
1046,
10ED,
18C9,
03F1,
0381,
0798,
087A,
03FF,
FF34,
11A5,
02A9,
FB2A,
FB8A,
0FB4,
1BAA,
0EC2,
DF42,
F019,
F36D,
FF25,
FBB5,
F48F,
054C,
F6A3,
F806,
FE97,
0637,
00C7,
F871,
08E3,
FF00,
17EC,
13FD,
04BF,
FD6C,
FED3,
03E1,
14BE,
119A,
1B09,
F321,
04D9,
0E20,
F57D,
E861,
F06A,
ED00,
07AB,
024E,
0591,
0770,
F801,
F9AA,
FD18,
F83D,
0A10,
04B7,
1251,
0E96,
0560,
F482,
038B,
01E6,
08A7,
F217,
FB73,
FE80,
031F,
1119,
15E4,
F05D,
E1D0,
EC5A,
E8BD,
FD02,
F846,
FDDA,
05AD,
FE8B,
F389,
E88D,
0204,
FFAE,
E94D,
F7DD,
F366,
FECE,
F920,
1177,
F5F2,
E05D,
0711,
F1DC,
F525,
FE30,
F343,
03D6,
F755,
E883,
DF75,
F153,
F792,
FC7F,
F63A,
0656,
FB24,
FF10,
F8D6,
08BD,
02A4,
0A0F,
F994,
F249,
00DF,
054B,
1295,
0C97,
03BE,
193A,
0338,
051B,
F8AB,
FCA2,
E8B3,
F6C0,
F818,
E171,
EB8C,
F4EC,
07BA,
09D2,
0269,
FA7E,
FEA7,
0594,
072B,
F86C,
0514,
EFC4,
F060,
E6F4,
E9F7,
05B7,
DE60,
F8A1,
F45C,
EBB7,
E7CC,
F497,
E454,
E9C3,
E72F,
F4DC,
F0E4,
ED01,
F325,
FCCE,
FC94,
0C2F,
058B,
0865,
01D2,
F97A,
0A47,
0022,
0177,
03B7,
F573,
EE8A,
FAC6,
F3FE,
ED99,
EA8B,
DE2D,
F125,
E8EE,
E4A5,
F224,
FC57,
F8E3,
F16F,
EF3C,
ED17,
0318,
FC48,
0351,
FD3A,
026B,
00BA,
091E,
F9E6,
047D,
0111,
FA90,
0252,
12D9,
03F9,
1281,
1CDB,
116E,
154B,
01AC,
0D13,
04BE,
0033,
08F3,
080A,
F08C,
F614,
0152,
F65B,
F999,
00AB,
F9E5,
F701,
FDBD,
FACC,
FDCB,
0ABE,
07AE,
FB9A,
07A7,
049C,
0485,
1395,
0C5B,
1448,
07F9,
058B,
09B4,
13A5,
0727,
F417,
F898,
FF40,
EAD5,
F7E7,
FD92,
F7D3,
0151,
069F,
F59B,
04B2,
FD30,
F88A,
F615,
FC26,
0ABF,
F604,
FF28,
F5E4,
F9DD,
FF95,
F76D,
F5AD,
F62B,
0436,
0760,
F3FE,
FB8B,
F2F5,
F035,
F011,
F767,
03D5,
FD9D,
0414,
02DA,
FC7B,
FC22,
00D5,
041F,
0B7D,
06DA,
FCC0,
FD32,
0831,
FA1C,
FC1A,
F8D5,
01BA,
F8D6,
013F,
FED3,
FD4A,
F5C4,
FCF8,
FCE8,
DE15,
E102,
EF8C,
F5B6,
ED34,
FF79,
FC2F,
F352,
F2B5,
0225,
FE5A,
09C8,
0776,
FC1A,
FE5A,
03CF,
05D3,
013A,
FCA2,
030E,
0032,
03C7,
F7A8,
E96A,
E8F6,
ED3B,
F570,
101F,
E0CA,
F816,
FA3D,
EE58,
EC06,
0336,
F9AF,
F945,
F0BB,
FE79,
0A99,
FF67,
F9A2,
F6F3,
F64E,
FDA4,
083D,
03DD,
FE3D,
F302,
EBC6,
F36B,
F796,
F608,
FC71,
0705,
F16D,
09E1,
1A57,
E5F6,
F5F0,
EFB5,
0CE0,
044B,
F3C3,
F5EE,
0439,
06A0,
FBD6,
FEEF,
0918,
0ACF,
0189,
FD25,
F6A9,
FBBA,
06D3,
F47E,
0114,
0E96,
0EF5,
0E48,
0256,
0CB2,
E42B,
FCCA,
EAE5,
FBA2,
EED7,
FFAE,
0921,
FD26,
EE11,
001B,
F5F2,
F771,
F678,
0055,
0E11,
F9AD,
FD25,
FD6E,
F38B,
F9EF,
0B85,
1195,
02C4,
FD00,
FB33,
0092,
F965,
FD1D,
FE88,
07E1,
F2CF,
FBFD,
F228,
0555,
FACB,
0C90,
014C,
FE81,
01EC,
00A6,
F61C,
F6FB,
FF50,
F5D3,
FFBE,
FF87,
FE69,
0F2D,
0DB7,
154D,
1190,
011B,
0A31,
0E9B,
0AA8,
053F,
F555,
0C25,
F3A9,
F9BA,
F881,
F367,
FD4D,
EFF4,
F972,
FBA3,
FBD8,
F6DE,
0448,
04F7,
00CA,
EBB0,
F356,
EA7B,
F3D4,
0712,
22EF,
1B58,
2B61,
1EAE,
0836,
083B,
0D8C,
FC12,
094D,
0724,
0006,
FF63,
F3CC,
09A0,
01B5,
EEA5,
FCAD,
0B34,
FC83,
F73E,
F447,
0AE9,
F6B0,
E882,
E7A7,
E7A4,
FF36,
0C60,
1775,
0EC9,
17EE,
0FCF,
0183,
05B5,
181B,
073D,
0645,
FE96,
10DE,
EE3A,
05CF,
00AA,
FE3B,
EF2A,
0095,
0AA9,
EE7F,
EC17,
FB98,
0077,
0080,
DDC5,
E35A,
F21F,
EFE0,
ECEC,
DE26,
E290,
F22F,
DC9A,
DE8E,
E3D3,
D6C0,
DCA3,
E48E,
DCE9,
FA50,
F4DA,
F60A,
E7C0,
F2FA,
F293,
F918,
F58D,
FACE,
F1B9,
0876,
F969,
F457,
E90B,
DEFD,
E11C,
C5E2,
B949,
B9FA,
996C,
9A7F,
9CB9,
A1EF,
AD3F,
BF36,
CB0C,
EA30,
E9F7,
E152,
F6F6,
05D0,
F542,
F8AB,
FB3A,
F97A,
F505,
E5DE,
F013,
0923,
15CF,
0AB6,
E0C8,
DA78,
CFA3,
A49F,
8D87,
8D9D,
9B59,
A2E4,
C543,
D429,
FB63,
F1A1,
F284,
FA34,
ED27,
F8D4,
0006,
0F7B,
E48B,
F3AB,
FDBD,
EC55,
F9C7,
F570,
E89B,
11DE,
FFEB,
FE27,
E8E8,
DA24,
C616,
B9D7,
A168,
AFAE,
D90D,
E3AD,
0320,
0651,
F690,
030A,
1D0E,
0512,
09A4,
EA81,
014A,
F8D7,
0F60,
F73D,
0623,
EE0A,
FC32,
EF76,
FB5E,
120A,
01E1,
FBA3,
E869,
E4B2,
C78B,
C2E8,
DABE,
FB7E,
1339,
1F95,
03AE,
0B79,
2588,
1700,
FC55,
108F,
F514,
F7D6,
F2BE,
0322,
FC14,
EC7C,
0A8B,
FF64,
E42A,
F1BA,
E9FF,
F76E,
FC5E,
F64F,
DF26,
E2F6,
E728,
DD08,
085B,
126A,
21B3,
1794,
121F,
11FE,
0190,
05C3,
084E,
F92E,
FD8E,
084B,
0164,
FE32,
EC28,
0ADA,
E617,
0B8C,
EEE7,
F271,
02EA,
0759,
FE0E,
0588,
F777,
E7B2,
EFCB,
F721,
1386,
194E,
13E7,
F734,
065C,
0A29,
FE9C,
0228,
0661,
F4C0,
FC1C,
EFAC,
EE50,
FADA,
EDE3,
FD12,
F768,
082B,
E6F2,
090A,
1413,
0BFA,
11C2,
174D,
FA0E,
040E,
FEC7,
18B1,
13A2,
0F6B,
056B,
1521,
0895,
1DE0,
FDAD,
0C1F,
1056,
EAF4,
0449,
06B1,
02E7,
0A9C,
0263,
18DD,
0D4F,
0D9B,
0CFD,
1CC9,
2557,
21DF,
1846,
14CC,
F205,
F7CC,
1126,
2998,
1046,
0719,
FEAD,
F6A6,
1859,
0514,
0C67,
033D,
0BD6,
084D,
0EDE,
0479,
031E,
11D9,
1DC3,
1AA8,
0ED9,
0F48,
1F6D,
1D1D,
10A4,
1569,
23E1,
0EBA,
FE03,
FB3A,
05CF,
26D4,
0463,
FB5A,
1267,
F9EF,
0676,
10F5,
FC82,
FBD8,
12E0,
029F,
182D,
075B,
0F03,
16F4,
0E01,
0B6F,
1CF3,
0848,
0D1F,
0E1A,
033F,
15D8,
16BE,
0839,
FF03,
FD84,
0240,
1F1E,
FF4A,
0150,
FFD9,
F86B,
0166,
0B28,
1205,
0D8A,
0ECA,
03F5,
FF19,
168B,
0A36,
0D04,
18C7,
1200,
144E,
0CA0,
16A3,
0524,
F779,
2095,
18BB,
FCA5,
0542,
F9E6,
074A,
1179,
0EF8,
103A,
0B51,
0853,
F83E,
1434,
07AF,
007A,
0861,
0942,
0B17,
16C3,
0EEC,
09BA,
FD59,
FD17,
FA85,
0C13,
FE7C,
F669,
107B,
0C24,
1333,
0B7E,
0612,
11E5,
FE2E,
17A3,
033F,
0CF6,
08A0,
F2A8,
0027,
F779,
FF0B,
0324,
0945,
1BE0,
0087,
FBE7,
045C,
083F,
FDE0,
078D,
0A4B,
0665,
FCAC,
037B,
0962,
0E94,
087A,
04C7,
0350,
0215,
1011,
036E,
06D0,
05FE,
F330,
EF2A,
05D0,
FF1D,
09FC,
160F,
02BD,
08BE,
00F4,
0D91,
042A,
06FA,
1689,
0ACD,
F901,
0518,
078D,
0A0C,
1145,
0523,
F9EB,
FF55,
15B1,
1001,
0CC7,
FA1E,
03EB,
FD22,
07CE,
15C3,
0F16,
14F4,
FE06,
105A,
03CD,
0317,
026E,
0326,
F298,
06F6,
0941,
F6B9,
00FC,
0439,
E5B1,
03EC,
0093,
0A2F,
0A06,
02BC,
0867,
041C,
0671,
064F,
0D0F,
14E3,
0036,
12F3,
025B,
12AF,
0EC8,
10AD,
06C4,
00BC,
13A6,
FD1E,
F77D,
FF30,
F805,
F2F7,
0B22,
F5E9,
F216,
F8BB,
1589,
0B32,
0B58,
FEC6,
022C,
091F,
0DE9,
0DC3,
1472,
0804,
0668,
10D8,
0B46,
00E8,
0D6A,
083C,
1414,
1AFC,
FAE7,
EB0C,
F9FB,
0683,
F457,
F8F0,
FC59,
10ED,
022A,
FF79,
0226,
FD19,
0240,
F346,
0F8C,
0584,
105F,
08FC,
0E5B,
1026,
1369,
1892,
1779,
0C90,
0A72,
061F,
FE19,
053D,
F091,
02BD,
0978,
0364,
078D,
FDFC,
0987,
07F7,
F8EB,
F04C,
EC9D,
EE75,
F206,
F5E4,
FD98,
0721,
036F,
0809,
1753,
0A3E,
114E,
0EF1,
257D,
11AF,
0A59,
09DC,
F9FB,
F061,
0BBE,
0C0B,
0CA0,
0ADF,
FCCD,
F406,
0104,
06C3,
F714,
F104,
EDD3,
F12B,
0249,
F52A,
F944,
0734,
FFDD,
0538,
F8AB,
F4DE,
063C,
F50B,
FFB2,
F0F5,
F546,
085D,
FDE7,
FEE7,
F7E3,
F996,
F58C,
E967,
FE4A,
FAD8,
02FB,
FF05,
099C,
F9E1,
06E8,
FCC2,
07A4,
08C0,
F4F4,
F59D,
0301,
F28D,
F037,
F6BF,
F277,
FF0B,
FB6F,
EA75,
04EB,
FE65,
0B9F,
04AC,
F942,
F752,
F3D5,
E8B9,
EE79,
EA6D,
F80E,
F896,
0405,
0362,
0ACE,
FED4,
F7E1,
0A49,
FADC,
FF67,
FBA5,
F86F,
FF35,
F890,
FA8A,
05A8,
F9A7,
F741,
EB3F,
0188,
0018,
0CA4,
018D,
09E8,
004B,
040D,
05BB,
E125,
E63C,
F7A1,
F815,
F5C1,
FC4F,
0365,
FD1A,
FF9D,
0324,
0633,
F5F3,
F50F,
FB8C,
FDE4,
0295,
FF11,
F994,
F0FE,
EE50,
FACA,
F706,
F63B,
0155,
E563,
FD6E,
0744,
FC08,
F333,
E39B,
F00F,
F08D,
F501,
FD31,
FD94,
0095,
FDDC,
FE55,
FE7E,
0F76,
F9D1,
F529,
F260,
FF8B,
EBC7,
EC8A,
EA18,
00FE,
ED10,
FCD2,
048E,
FCC1,
FF7C,
FDEC,
04B6,
F813,
1106,
10AE,
F932,
D7E7,
DE2D,
EB31,
028A,
047E,
0F51,
087D,
0195,
0DF8,
EFFE,
F798,
0988,
F74F,
EEA4,
FB8F,
ECD4,
006E,
EEDD,
FECB,
1455,
0998,
008A,
0D16,
014D,
F333,
F754,
0F82,
F024,
118F,
E9A1,
FBD9,
0958,
094C,
F9D1,
059D,
0909,
F6DA,
FBB0,
ED97,
01F9,
06BF,
F7D3,
1451,
07FF,
0358,
0472,
F761,
00BC,
F162,
FADD,
FFB8,
E915,
F5D1,
0156,
F4A5,
059B,
F105,
00E6,
027F,
0B04,
00F1,
0744,
04E4,
F553,
FFBE,
03EB,
EFA9,
F1E0,
09E4,
08C6,
0E94,
12BB,
1073,
00F9,
0E24,
FFF1,
EC09,
0B13,
E111,
F1DC,
F7A9,
ECF7,
09BA,
1CAD,
FF6B,
FE2B,
F842,
F62E,
00F5,
06CC,
F7C0,
FD7D,
0CC2,
E8DD,
FED2,
021B,
FEBB,
10F5,
1124,
0AEE,
12BD,
09A3,
1756,
1005,
0D91,
0136,
FBB3,
0D54,
EEEA,
F45F,
05A7,
FF34,
166F,
F52D,
F9ED,
FD12,
07BD,
0158,
F5B6,
0893,
F6D3,
F48D,
0BC5,
0CE4,
F5A4,
FE71,
1CD8,
1F05,
0604,
FBC2,
0200,
FFFC,
F104,
04FE,
E13F,
0611,
F002,
030D,
05F5,
0494,
0BDD,
081D,
FE1E,
020E,
FE29,
060F,
FFF4,
0795,
F66D,
FB79,
0B59,
0C4D,
00F0,
FC46,
0140,
F9C8,
FF1B,
0037,
0881,
E7A2,
EB24,
F03E,
FDA1,
FF87,
0FD0,
0143,
0F09,
0F57,
F58C,
E8F1,
0646,
EF88,
000D,
FD3E,
F640,
03ED,
F1DD,
F760,
0565,
0231,
FBE9,
FC96,
F470,
F691,
F03B,
05D9,
DA06,
E71E,
FE41,
F944,
F9AC,
EE0B,
01BE,
F4FF,
F352,
F601,
0AE7,
EF8A,
11F7,
158D,
0703,
031F,
EFA0,
F1A7,
FEC6,
07B7,
F447,
FB90,
E944,
EC74,
EA25,
E160,
D922,
E73E,
D2E7,
F1C2,
F9B1,
F603,
FF88,
16AE,
F82B,
FF26,
029A,
000C,
FDDA,
FCF2,
105B,
0BE8,
0392,
039F,
F5C4,
F2F5,
F6E8,
FBBA,
E09B,
F502,
D605,
E310,
CEA3,
D72D,
D201,
CD9A,
E7CB,
1168,
0DB9,
0990,
1699,
02B9,
0E67,
08A8,
0630,
131B,
F910,
0EFA,
0891,
FCB1,
0A27,
F514,
FAAF,
ED54,
EC96,
EF20,
E90B,
DDC8,
CA26,
C301,
C7DD,
D8C9,
E158,
019F,
1759,
126F,
082F,
095B,
FEF3,
FAF2,
F5E5,
0D3B,
0CA0,
1080,
0988,
0A2B,
FAF1,
FF7B,
F497,
F9C8,
F37F,
F59C,
EA1E,
EADD,
D19A,
CA95,
CA26,
E48C,
D5B4,
EC36,
FD10,
23DA,
0D4E,
1598,
FF57,
0796,
F3B1,
F1FD,
04F9,
F972,
FD11,
1B63,
FA84,
FFF5,
0809,
F2BB,
EC30,
00CF,
FC39,
E6F3,
E3D1,
E0E8,
CC8B,
D737,
E6AF,
F24B,
02EF,
0ECD,
1FA1,
2FAA,
075F,
096F,
0D5A,
0514,
FAFF,
0EA6,
F970,
F064,
0159,
0FB2,
F861,
198E,
0DDE,
F680,
0535,
0742,
F984,
E913,
EB33,
D3B7,
D57C,
E431,
FBB8,
FAF4,
007E,
2278,
1DA3,
099A,
1D8B,
00C9,
FC13,
0374,
F301,
FB12,
FD0A,
0F2A,
F53E,
100A,
FC3A,
F63E,
FA92,
07EB,
00D3,
1204,
FAEF,
EC0E,
E9F5,
DCD8,
EBB9,
F589,
F154,
1153,
04A7,
1E51,
23B3,
088D,
198A,
02BB,
F0AA,
0907,
ED2A,
F18A,
0DE6,
F9CD,
0E9C,
DDB2,
E9C7,
FA1D,
0B53,
10AC,
FD6C,
0C48,
F1AF,
F584,
FA1E,
EE28,
01C5,
025D,
0895,
0EFE,
0DDE,
1F1C,
10A9,
1C9E,
FFAE,
FEA0,
0B64,
09F9,
18D3,
0132,
E0A6,
DC9C,
0CE1,
F0CB,
0296,
F5B6,
00A2,
0989,
0A6A,
0B22,
0435,
F48A,
ED6F,
F610,
0826,
F68C,
FB4E,
2230,
167C,
FE47,
0A77,
1157,
FB4B,
05A3,
FA3A,
FD66,
F776,
F99B,
FA41,
E2FF,
FC1F,
F97D,
1171,
FE45,
0922,
0C37,
0E0B,
0393,
F2D7,
EC36,
FCCC,
0B0D,
03D9,
FE00,
1305,
2389,
EEA7,
0A49,
131D,
0579,
1AEA,
034F,
009C,
F95A,
0BC8,
F7B2,
11E9,
0862,
F912,
0651,
1294,
043C,
FBC7,
0B01,
1E7D,
089D,
FB91,
026C,
0982,
FA43,
206E,
25BA,
10FA,
12A6,
0234,
F4B5,
0E6C,
02FA,
00FB,
06B1,
0DFA,
FED0,
EB99,
0451,
0F76,
120C,
FD8A,
FD1F,
1386,
F3AA,
F573,
0E06,
2050,
141D,
F929,
0BAE,
02A9,
033F,
09AF,
0CB6,
12B8,
08E5,
08A5,
0A8A,
FD68,
02BE,
126F,
0D8B,
1836,
13BF,
FF36,
F661,
0AD2,
FFC9,
080F,
0A47,
06FE,
0A2E,
02C1,
085E,
1475,
01D7,
04C5,
F810,
0364,
0273,
0321,
05A7,
F41C,
F5D7,
031C,
F87A,
0749,
0AF6,
12AD,
0AFE,
03DD,
0D3B,
1A18,
D9BE,
E8B3,
EA02,
F432,
F782,
04A6,
FE56,
0ED0,
04B6,
0B0A,
0749,
0165,
0257,
0394,
0B08,
FFE3,
F7C6,
0753,
184B,
0C00,
0AC9,
1053,
0F87,
058B,
FAB4,
0136,
FFC1,
E8B0,
D931,
D813,
E696,
FA9B,
F168,
050B,
0FEF,
FB23,
06DF,
F692,
05FD,
F4E1,
FEFD,
FABF,
F54E,
F6AF,
FAD8,
0021,
0747,
FE02,
07D4,
09CB,
FE48,
FE92,
FDD9,
E8BC,
DEF2,
D59D,
DDF2,
E812,
FF8D,
FCB9,
EBD6,
FBC7,
0C68,
0A1E,
FEED,
F9B7,
F5CE,
07A0,
084A,
037D,
F9A5,
FFA8,
032D,
EC75,
ED2B,
FBCF,
0ABA,
10F1,
06C9,
0622,
EB99,
F639,
E04B,
E150,
EB45,
F38D,
0382,
10AE,
F850,
F33A,
0374,
FD4C,
FD66,
F47F,
0125,
0B23,
0198,
0765,
0A08,
F5AC,
013A,
F971,
FD5B,
F546,
F855,
01D5,
FB64,
F15D,
F4B9,
F8A3,
02AA,
F618,
FFFF,
F85C,
F65B,
03CB,
FDEA,
FA90,
045E,
0882,
F73F,
0661,
FDA1,
044D,
06CA,
F970,
FCED,
0248,
0071,
FB39,
F0B8,
F21C,
EEA6,
EAA1,
E65C,
E563,
DDD3,
F2BE,
F049,
EBF5,
E6F4,
E9D7,
0174,
FB74,
01B7,
026D,
FC90,
F833,
0418,
0728,
FEE6,
0B0B,
F82A,
0776,
065C,
F024,
EB87,
E6D9,
EDE9,
E189,
DEFC,
D929,
DBB0,
CF84,
D4B5,
D699,
E449,
DD23,
EFF0,
EB28,
F60D,
FFE5,
FEDB,
0359,
FE5A,
FBF1,
FA24,
062E,
0B1C,
0465,
FA33,
06CD,
05B2,
ED3B,
DD86,
CC6D,
D4BE,
DC3F,
CD0F,
CE92,
CA62,
CFEF,
BC0E,
D377,
D77A,
DCA8,
C3C4,
D5E3,
EDC6,
ED16,
ECE8,
FCA5,
F892,
042D,
FFAB,
FF12,
0B75,
09CB,
099A,
050E,
F990,
E6EA,
D683,
D0D1,
E37D,
E542,
DD79,
EAEC,
F45D,
07FC,
F435,
0A7A,
EADF,
EE4C,
0E77,
F08D,
BD26,
E3F1,
DFBE,
EC4A,
F84C,
F83D,
FFBD,
062A,
047F,
0398,
FFA8,
08C7,
0568,
F5F6,
F224,
F972,
0117,
0EF5,
1175,
EAC3,
0C90,
0518,
0576,
069F,
F90B,
F9A8,
FC77,
E2CE,
EF19,
DF40,
E3BE,
FBEE,
00F3,
F5B4,
16C1,
F763,
F7A7,
FECB,
0D8E,
0A9F,
0C69,
0911,
0B7C,
F9E1,
FFD6,
0571,
01C7,
01DE,
F69C,
0091,
0158,
015B,
0B64,
EEFB,
0213,
05B5,
0642,
E3A3,
06EB,
F137,
F5D0,
