memory_initialization_radix=16;
memory_initialization_vector=
F93B,
08F3,
F7DE,
0220,
02A9,
F708,
01CA,
005E,
06FF,
F3B2,
FB65,
F83A,
0480,
0181,
FD82,
FD81,
FDFD,
06A4,
07FE,
F615,
F944,
0B23,
0363,
02B9,
076F,
FD32,
0454,
FF34,
0D04,
0046,
0228,
F6CF,
05FC,
00E0,
FC16,
FA96,
F7CB,
F4ED,
09BC,
055C,
FD61,
02F7,
07DC,
092C,
FB82,
00B2,
FEEC,
0503,
F595,
FB75,
065C,
FA48,
FBF4,
F6FB,
FCEA,
FD53,
F9A3,
00D2,
0416,
F58E,
0287,
F985,
02C0,
0255,
0699,
0404,
FEFC,
F91D,
FF19,
04A5,
FA3F,
FFC4,
0BD1,
F789,
FA63,
FAEA,
F79D,
F89E,
FCEB,
008D,
017B,
047A,
FAE7,
FC26,
0734,
0198,
FEE0,
FA38,
003A,
FFC1,
FE8C,
00C5,
FE0E,
F629,
FE29,
FE54,
FFE2,
0244,
F89C,
F5FE,
0428,
F997,
035F,
FEEC,
F6D2,
09BA,
022F,
FDD0,
08B1,
FFAC,
F83C,
FD79,
0354,
F961,
FDE0,
F584,
FD99,
0080,
09BC,
0228,
F7F1,
06EC,
02CE,
FFEE,
0063,
F7C6,
091E,
F6B8,
083F,
0199,
FA65,
F8A4,
FFEA,
FA85,
0049,
F81B,
122C,
FF44,
F8B0,
02F6,
0CB2,
0A64,
0734,
02E9,
02F5,
FF2D,
03F3,
0ABF,
FFDD,
0765,
FA96,
04B3,
F5C7,
0877,
0D0B,
FC5D,
0C24,
0634,
0670,
0722,
F8FD,
078B,
07A3,
FE66,
0397,
F70E,
FEB9,
FF18,
0030,
03AE,
F6D8,
FC66,
FB77,
00BF,
06F0,
FD4B,
FA3A,
07C9,
FC56,
027A,
F90B,
058B,
F850,
FF3D,
042E,
0DA9,
F821,
F62D,
FAF9,
F7FB,
02CC,
053E,
0643,
0235,
0209,
F4C1,
07F6,
FD8D,
FCCA,
014D,
1492,
0524,
FFF5,
01A3,
01D1,
02B1,
07A1,
F69F,
FD3D,
F67D,
085B,
F604,
0538,
0A08,
0737,
0043,
0511,
F6B1,
FBAA,
FDCC,
0A66,
00DD,
0AD2,
0997,
FD6B,
0327,
01ED,
0830,
0A3A,
F0BF,
0315,
FFF6,
08E3,
F6D5,
034A,
0142,
FF35,
024C,
FF1D,
0981,
FF15,
FD5F,
F900,
F4CA,
F535,
FA55,
052B,
F7A7,
0340,
0147,
F523,
038E,
FC48,
F758,
F61E,
0B5B,
0A4E,
0858,
FD5E,
0664,
0E3D,
07B0,
0764,
03A7,
1097,
F966,
F6DC,
0065,
118D,
0436,
006A,
0360,
08D2,
F8BA,
FEF8,
FF28,
F8AB,
F5AC,
FB4D,
FA50,
0442,
F97D,
FBFD,
052A,
FFA8,
FBBF,
05D6,
FDB0,
0329,
FC0A,
082C,
F573,
03A9,
F069,
F478,
0230,
026C,
062C,
FA0E,
F69E,
FA91,
0DC1,
FF30,
09E6,
00CA,
06D7,
0A21,
FAAD,
F95E,
0A83,
F959,
FFE2,
FE77,
010A,
FF6F,
F04B,
0519,
0BC6,
F980,
0834,
0068,
1252,
FF9D,
06AA,
03E8,
06B8,
0144,
F6AD,
070E,
0318,
F7C3,
03EF,
F8E3,
0846,
F1C4,
055D,
F51E,
EB8C,
0323,
F5E4,
F4DE,
013A,
0409,
FD8E,
02DD,
E753,
FA1B,
09B9,
F51E,
067D,
0193,
FFA0,
07D1,
086B,
0568,
FCEB,
0652,
FE5F,
F763,
02AF,
09FE,
FF5D,
FDB3,
FA0A,
01B0,
04E8,
03C2,
F697,
0BAA,
0BE5,
F97B,
EB75,
FCE4,
F95F,
F18B,
F9B4,
06FF,
FFEB,
F915,
EF12,
FC10,
07EC,
0BBF,
F966,
00BB,
0A8D,
F9A2,
FA5C,
F9D2,
F47A,
F76A,
F98A,
0CA5,
0230,
F52A,
FAF8,
F394,
FD24,
0572,
FF4D,
F74C,
FE43,
F946,
F9DD,
063C,
F971,
178D,
F452,
FD5D,
F3FF,
FC37,
FE14,
04A0,
F9A7,
F6F0,
F6E8,
001B,
0533,
13B7,
F2C7,
0D55,
EE87,
F97D,
0758,
FABE,
F93F,
F7D4,
01BD,
1199,
03E9,
F97C,
FF16,
0406,
FB1D,
0E51,
F603,
0A04,
FFF0,
F21F,
F9C1,
0850,
07EB,
EEBF,
00A9,
0B8C,
0FEA,
0263,
FEB1,
EE46,
FBA1,
1062,
0256,
FC5F,
F77F,
F06F,
0372,
1114,
1606,
0929,
05CE,
F313,
FDC2,
FFE2,
FDAF,
F5E9,
FE1C,
027E,
FF95,
F50B,
FD5B,
20BF,
0597,
FE4F,
F629,
F8AE,
01E3,
00CA,
00A2,
F283,
FF59,
FFE0,
0FE2,
0B20,
F119,
062B,
E440,
F53E,
0B36,
0766,
009D,
F76F,
FF2F,
07F9,
0289,
FA14,
167F,
F642,
0AC4,
08D2,
FE52,
02F7,
FB5E,
F861,
FBDB,
FD35,
0B33,
EF2C,
F0BB,
0BF9,
018C,
F93C,
FCDF,
DE1A,
046D,
06B7,
F815,
FB1C,
F8D5,
E8EA,
F461,
0F01,
FD82,
0557,
03CE,
F2B8,
00C8,
ED7C,
FF8E,
FF44,
F083,
0804,
F76D,
FFB2,
F546,
0DE6,
046B,
0887,
E236,
E5D6,
FF2B,
EF03,
05A9,
FA24,
147C,
059E,
218E,
FF2A,
F2E7,
02B8,
F6B5,
F330,
FF6D,
04AE,
08A3,
FCF4,
0A1B,
044F,
0AE0,
F08A,
FB76,
02F8,
F4AE,
1E4D,
E6A2,
0622,
EA88,
EF25,
F011,
FFAC,
00BE,
0232,
F3B4,
F4E6,
01F0,
0091,
FF87,
D9FE,
FD8C,
0F16,
F157,
FA09,
F7CA,
DAF5,
F129,
198B,
00A6,
18F7,
003C,
EBF5,
F126,
FDD3,
FE6B,
F91F,
FBBD,
FAC6,
F5AD,
F0F5,
F855,
FDE8,
0D58,
FCCA,
EC93,
F54D,
FEBC,
EAB4,
EF42,
F4F1,
08FD,
FAAB,
0323,
03B6,
E951,
0600,
0DFF,
EC9A,
F085,
0BA1,
F67F,
1006,
0331,
FB46,
FAE9,
F762,
F735,
0614,
EB9B,
17D1,
F18C,
1742,
005F,
ED85,
F1FD,
0B02,
0729,
FE15,
FD27,
F53C,
0DF8,
F06C,
F6F2,
D676,
083B,
0C3F,
F7B3,
F03B,
F001,
DC6A,
F0D1,
0BB7,
E818,
238F,
0BDB,
FA04,
FB12,
10FE,
ED54,
F636,
F4DA,
00E5,
F62B,
F546,
01D5,
0888,
F365,
F390,
DF0B,
FB32,
F964,
F0A5,
F92C,
FD27,
0DFD,
0E38,
13F4,
09CB,
EC44,
F2FA,
1980,
F7A8,
FE94,
0611,
FA7E,
1215,
FE5B,
F0E4,
EE53,
F7B4,
F515,
F4DF,
F4D5,
2AD4,
F582,
0E15,
0528,
F64C,
F6CA,
0451,
1918,
0B4F,
127E,
078B,
076E,
FBF3,
FC20,
DB4E,
19A4,
0BA3,
110B,
01ED,
F37C,
EC72,
E9B8,
0F3F,
FCDF,
197E,
0B37,
F9F7,
01A3,
041C,
F323,
F939,
E8A5,
0694,
0436,
085D,
FB64,
F5E7,
F152,
FEF2,
E89A,
EBD3,
F5DC,
FAE4,
07E2,
06A1,
128E,
06D1,
ED34,
FC9D,
F391,
FDBF,
1F39,
FA01,
F703,
09DD,
F96C,
1BF0,
097E,
009F,
057C,
F459,
F9CC,
E468,
ED91,
30FC,
FB67,
F71D,
13F9,
F769,
FD7C,
129E,
02DA,
0985,
FBEB,
0495,
0637,
FF2C,
F6F4,
E1A7,
2458,
FBFB,
0A97,
FBA1,
ED11,
FD5F,
E685,
1D26,
F69B,
F969,
F9D7,
0127,
0F4D,
0F48,
042E,
02A2,
E5DA,
F276,
0760,
FDE7,
F15D,
DF29,
F347,
0445,
E18E,
ED32,
FB06,
F445,
F1C8,
FEE9,
0EB8,
FB18,
F1F4,
0B3F,
F7BF,
F695,
274E,
FE45,
F517,
ED09,
FA68,
1D45,
F5F1,
FD4B,
11C1,
F6AD,
0694,
E158,
F2FD,
243D,
FB58,
0A31,
FD74,
FF9E,
FEA7,
0780,
07FD,
0B53,
0E1D,
02C3,
0C00,
0139,
F6BC,
DF7F,
2AE5,
01D0,
080C,
F5BF,
FF96,
0A65,
D6B5,
1016,
FD5C,
FC61,
FA73,
F372,
FA61,
167B,
0FA4,
FBC8,
EAAA,
FF61,
F3FE,
FEE7,
F4B9,
DA63,
FACD,
0A6E,
F13B,
F543,
049A,
F634,
F655,
F6D8,
13D4,
F898,
F563,
067C,
EFEE,
F59D,
197E,
E904,
0799,
F57C,
EDD7,
0F7B,
06F5,
05DC,
087C,
E98F,
0217,
F44C,
14DB,
1BA2,
070F,
F70C,
00E4,
087F,
0564,
00D7,
0E1F,
071D,
0AF7,
FCD8,
0D50,
03A5,
F755,
EF07,
0FA6,
F6E7,
1F0E,
0B37,
00D4,
0FEC,
D4CF,
FA86,
F14F,
0906,
0293,
E760,
FF8A,
0934,
0B22,
F57D,
FBE7,
F195,
FB8B,
F7E3,
F8A3,
D576,
0616,
F131,
F580,
03C0,
FFA9,
FF11,
F058,
F608,
1BCA,
DF8D,
F98A,
1577,
03C2,
0783,
0BA3,
FAFE,
F8A0,
ED3F,
EA54,
11DF,
F026,
00A5,
FEB7,
EEFA,
F718,
FED4,
1971,
0D38,
0401,
FB8C,
F536,
0925,
F4A4,
097A,
10D6,
FAF3,
00F8,
F974,
F714,
FFAC,
F411,
E20D,
16D6,
03A7,
1765,
0279,
F8A9,
2069,
D9AF,
01D2,
F915,
FD3C,
025F,
F5D4,
FDF4,
0D42,
19FB,
E2E4,
FFA9,
0722,
F2F5,
F996,
02AA,
E5E6,
0D50,
0504,
F341,
0AC6,
03D4,
1642,
F6C4,
F904,
03E7,
F97D,
FE67,
05C3,
EFCC,
0548,
1408,
180C,
049E,
F292,
F046,
1B93,
F3FE,
EC79,
FD36,
01D3,
0648,
F718,
11AF,
150C,
0346,
08C9,
F7E8,
0D3E,
F5BB,
0793,
0463,
0BA7,
03EE,
0101,
0106,
01E6,
F2DD,
F1D2,
076B,
FACD,
1397,
059D,
EBFB,
17BB,
EA13,
FAA7,
FE7F,
0686,
0C11,
F574,
F875,
03B6,
123E,
FB2D,
F374,
082A,
F035,
F58C,
F618,
E290,
24C5,
0136,
FFEB,
0946,
F4CD,
1F2B,
FB96,
F687,
0DF6,
E98D,
0A44,
0063,
F5FF,
F90A,
FD1C,
146C,
02B3,
E9DC,
01BD,
0F81,
005B,
F67C,
FA02,
0261,
F7DF,
FD88,
1669,
1AC6,
F1DF,
06C6,
EA13,
0280,
F803,
0919,
0783,
08C5,
06DF,
FEF4,
F42A,
07AB,
F6DA,
F56A,
0B05,
F5A7,
06D4,
0279,
F800,
1947,
1195,
FB67,
0549,
077D,
1461,
EEBF,
05BC,
F915,
FF9A,
F71F,
EDE9,
0FA3,
F011,
E967,
FFFF,
ED8E,
1C9F,
FD52,
EDD0,
0510,
F8D9,
146A,
017C,
07FC,
0C82,
E7F1,
FF9E,
F8AC,
0132,
FF9B,
FFBD,
0870,
FAD8,
0366,
F91C,
158A,
000D,
E39B,
FF8B,
FD70,
E179,
0EA8,
02B6,
FCD4,
F86A,
018D,
FCD7,
0CC8,
04C8,
FDDA,
0CB0,
106C,
0129,
F318,
FD5D,
0BC5,
03E6,
FD55,
0DBC,
06D1,
FE0D,
06BD,
F717,
0FBF,
0CCC,
F00E,
FA59,
19DB,
0CD8,
FCA7,
F435,
FCBB,
01B3,
0094,
EF38,
0934,
F767,
FE4A,
F85C,
F03C,
0683,
EC11,
FFD9,
151A,
F480,
1822,
FCF4,
01F8,
0102,
EC36,
092D,
FB22,
F62D,
0529,
EF18,
06B5,
063D,
0160,
0C03,
082D,
03D8,
FAA5,
0117,
FEF6,
FE24,
08E5,
1351,
FC97,
FCDC,
049F,
034E,
040B,
F9AA,
F8DE,
FDA3,
0660,
0BB7,
03DE,
EC69,
127B,
FFB7,
FF80,
1425,
08AE,
069C,
0395,
04F9,
0C90,
1977,
E25E,
0412,
11FC,
027B,
F7D6,
0575,
04D8,
F838,
FFBB,
EFFB,
F42D,
03D5,
FAD8,
F65B,
F57F,
0848,
FF78,
FA89,
1504,
F75D,
0392,
12B7,
FAAD,
12B1,
EF11,
FA0C,
0676,
0495,
071D,
01F2,
0F22,
05C7,
0355,
0F26,
076B,
046B,
EB27,
0A9E,
FDB6,
0040,
1127,
077A,
ECF3,
0064,
018D,
051D,
F749,
FE70,
F65A,
0A63,
015A,
0BA5,
00FA,
F5DF,
016B,
FC5A,
F8DD,
11F9,
06EA,
FF2F,
01CA,
0846,
0CBE,
0A1D,
F797,
FC8C,
0C82,
0DB4,
E7E3,
F720,
08EA,
FE44,
04E0,
F2A6,
0920,
FD9D,
02FB,
03CB,
FEF4,
F80D,
029E,
F623,
0E4D,
F025,
FE08,
0761,
FF82,
177D,
F413,
09B9,
F5E9,
00AA,
0B47,
0002,
0695,
04ED,
FDBE,
02AF,
0619,
0EE0,
0023,
EF8D,
FE15,
07E0,
101F,
064A,
FDC8,
FF11,
FBCF,
F769,
FF34,
0626,
F9C6,
0C23,
F231,
0B5B,
01CC,
F276,
06A2,
F894,
EFFB,
026E,
0221,
F8AA,
FF56,
053B,
0B47,
0D3D,
F2B1,
F652,
FEE8,
1957,
F1A7,
FB64,
F48B,
0457,
FD73,
FEE9,
0923,
0414,
FF05,
FDEA,
0191,
06B8,
042D,
080B,
1C56,
F86D,
0C84,
06B8,
F385,
000F,
E811,
F839,
081B,
0075,
FEF1,
0246,
0B01,
FCE6,
04DB,
FEA7,
FE77,
F89E,
0830,
F972,
0A16,
F5A4,
0FF0,
0EFA,
0393,
F7EC,
0221,
0BD5,
0DC8,
FCB8,
FA0F,
00B7,
E8CF,
0789,
0702,
FC81,
0117,
F9CE,
01BB,
FA25,
06CD,
FBAB,
FEFC,
0A61,
FC4C,
026A,
F2B0,
F781,
04E5,
FE21,
F78B,
F887,
F89E,
F93B,
0911,
FC66,
FE8D,
02DA,
099C,
FA90,
0716,
FE5A,
FAED,
02D9,
0DF5,
0372,
0CA4,
0AFB,
0632,
0093,
EECF,
035C,
FF79,
08D4,
0BD5,
01F1,
126E,
FC6A,
FFF3,
07A7,
F4D0,
0169,
0677,
F549,
F953,
024E,
109E,
FF32,
05D8,
FD8D,
FF2E,
0B79,
F5FF,
0040,
FAB2,
FA67,
F501,
FBE1,
087C,
FD6A,
0743,
F862,
FF6A,
003B,
F732,
0A78,
F93F,
0566,
F1E6,
F929,
0711,
F757,
F4A8,
F76D,
06E5,
F5D0,
FA94,
05DC,
FC0D,
0135,
FABB,
FC7B,
F9E1,
045E,
FF8E,
F9B1,
F704,
F8A6,
0854,
F953,
FE75,
08E1,
F5B1,
FF59,
FFB3,
FACB,
080E,
F46D,
FC3B,
F673,
0419,
02A7,
FFC1,
024F,
FD46,
0707,
0783,
F9DF,
FDD0,
0360,
0992,
048E,
FD83,
0AB5,
08AD,
F6EC,
F74D,
F6E7,
FDAF,
FD77,
F65B,
074B,
0C2D,
0067,
FD8A,
06AF,
FF83,
F30F,
F8CF,
F878,
037B,
F91D,
05A6,
068C,
F7B0,
037D,
042D,
FD65,
F89A,
FDCF,
FBDB,
FA75,
01C5,
0437,
0568,
FC22,
06E8,
0882,
FDF6,
064A,
0B94,
0735,
0948,
05A3,
004B,
FE74,
FB19,
03D0,
F74F,
F6E2,
0131,
04CD,
069D,
F6D2,
02DC,
007A,
0868,
05AA,
03DD,
0FBE,
019C,
04EB,
F847,
F9BB,
F8CD,
07BB,
0041,
F75A,
075D,
FB47,
00D8,
F65C,
F547,
042A,
EFBD,
0005,
FEFA,
FD5F,
FBF6,
06DF,
F7EB,
FAC6,
F874,
F93D,
FEAF,
03AC,
F940,
0B14,
09CF,
FB9D,
0044,
FD5A,
0308,
F7A2,
F72E,
03F0,
FADE,
FBA9,
FBC8,
00D5,
FCC2,
F73F,
FB99,
050D,
FFAD,
08AC,
F74F,
F84B,
F582,
07CF,
09FA,
FA36,
FE03,
FE34,
06C3,
F852,
F830,
0621,
FFDC,
FE73,
F82A,
04BA,
F245,
0665,
0515,
F6C5,
0109,
FF0C,
FA2F,
0732,
07FD,
02BC,
FC4E,
017A,
000A,
05C8,
FB7C,
0908,
FD68,
FD0C,
0853,
F6C0,
FBBC,
0A7B,
007C,
F716,
FD15,
06B5,
0654,
0362,
068A,
01F5,
F83F,
01E6,
F6EA,
0BCE,
0512,
F786,
FAA5,
FBF3,
FF9F,
FED0,
06BF,
041F,
07A4,
0661,
F9D1,
F51B,
081B,
05E3,
FAD0,
06D4,
FA82,
0029,
01AD,
00BB,
F76A,
F7D3,
F67F,
0761,
0805,
FBF6,
0A25,
FF16,
0413,
F984,
0123,
FF5A,
FA3F,
015D,
0278,
FA0C,
00DD,
0A11,
07A7,
0830,
FDA4,
0216,
F4DA,
05DB,
06C9,
05A1,
05AD,
08D3,
01EB,
006C,
FD3E,
F7C7,
F861,
F240,
FCE7,
FBB7,
02ED,
FC73,
FD79,
F7BD,
FA5D,
FAE5,
F6F1,
007A,
F8B3,
0A6A,
FF5F,
FFD2,
FE4E,
FED9,
FA89,
0B7D,
08C0,
FDA1,
0154,
F85A,
0090,
03E3,
FBE1,
F8A0,
FB34,
F606,
0587,
0507,
FA28,
0001,
FA08,
0567,
FF70,
F3D9,
F614,
01F7,
0653,
F58E,
FD6D,
04D1,
051A,
098D,
0521,
0AB4,
0D4F,
F599,
0991,
0ACA,
FBE6,
04D8,
0056,
044A,
F8C2,
0308,
FBA0,
03F1,
030C,
0108,
F5EB,
03EB,
F8FF,
099B,
F6E4,
032A,
065F,
09F6,
0533,
028B,
FBC1,
F947,
09AD,
00BA,
0595,
097C,
0815,
F512,
0190,
F95B,
0815,
06DA,
F4F4,
044D,
00B4,
0900,
FEC2,
F962,
03BE,
F8C1,
0002,
0566,
0A06,
FA28,
01F8,
FD13,
0565,
F3EE,
FAEB,
02BE,
FC51,
05C4,
03A6,
03B3,
F61F,
0555,
0584,
063E,
07F6,
0051,
064C,
018E,
F638,
0931,
053B,
F9E4,
07CE,
F897,
04F8,
08C8,
0121,
F76F,
085F,
FDE8,
F393,
F559,
FDA7,
FCE6,
F4A7,
0B4C,
00C5,
FE4E,
FF58,
FF08,
02C1,
FA21,
0179,
FE2B,
FFE8,
02F6,
065A,
02FF,
0470,
F577,
FD60,
FCC0,
F59D,
06CA,
0192,
01F1,
0163,
076A,
00DC,
023C,
079D,
F382,
FB24,
FF95,
FA5C,
00A6,
04C3,
01B2,
F9AE,
F15B,
FE81,
05BE,
FF7A,
03E5,
F347,
FEB8,
02E7,
F481,
FECD,
F778,
FEF8,
02E7,
F752,
04C5,
FFBB,
FDEE,
F554,
FBB3,
F948,
FB47,
FC6E,
0781,
FF64,
0A3C,
00D3,
058E,
0983,
F761,
EAA5,
FDC2,
FF44,
05D8,
F4D0,
FCB6,
115A,
F6B6,
F934,
F6DB,
0B30,
F5D6,
0785,
07FA,
02A5,
FCFC,
0323,
FD32,
0301,
F970,
0050,
09FF,
F951,
0342,
0D90,
0F31,
FD2D,
FDE0,
FA3A,
0398,
05B1,
0030,
FD42,
FB47,
FB75,
EFA1,
F8E9,
0463,
FD1D,
0127,
F4A1,
087F,
FA1B,
F9D5,
0020,
067A,
0100,
FAD3,
FFDF,
F763,
FBB7,
0361,
07A3,
09E4,
FB0A,
0FDD,
FD36,
FF5F,
0EB5,
078E,
0164,
0436,
08ED,
F5F7,
FCC9,
F8D9,
0A1F,
F84D,
05EB,
FAB1,
034D,
ED10,
042A,
0804,
07AD,
F89F,
0996,
F4D7,
FD7E,
0398,
0699,
0831,
F28D,
FCED,
0740,
097F,
FDBD,
F08E,
0DE5,
FE89,
FD4B,
FD83,
0905,
072D,
0D77,
FC0D,
089D,
FB1D,
FBB3,
F7D4,
F949,
FA85,
F75C,
F842,
FC1C,
FB79,
0072,
0408,
FA36,
F8F3,
0FF1,
FFF6,
0428,
F26F,
F7AB,
0855,
FB9A,
F7AD,
FFF3,
FAFB,
0041,
05FC,
0303,
F89D,
FF27,
0AB0,
F930,
FEE8,
F21D,
FE7F,
FAE1,
FCE0,
F57E,
0714,
04FA,
FF5B,
FD62,
FDD0,
049F,
FCCE,
F3E4,
0714,
00A8,
F5D8,
F962,
FA1C,
F037,
0248,
0D4A,
0C31,
05E8,
E9F2,
04EA,
0631,
0526,
1207,
0A51,
0780,
004D,
0D57,
1146,
FBBA,
0790,
EEAF,
0184,
F59A,
FDC0,
FB84,
FD9E,
FD77,
FC27,
08B2,
FF7F,
FC74,
0DE1,
0ACC,
02B6,
FFD9,
F7A7,
FF6E,
058C,
03C5,
096C,
064E,
F828,
F43D,
00DB,
0113,
010D,
FDBF,
0C4B,
06C2,
F70A,
0C03,
FB27,
F625,
00C9,
04AA,
0C4C,
FCA4,
078F,
0DFE,
FA97,
00BF,
F4D1,
FAAC,
0074,
F5ED,
0569,
FC1A,
F6BF,
0071,
19D4,
09E9,
03D3,
ECC4,
FB31,
F48D,
ECCF,
04CE,
FD1B,
FDE8,
FEED,
092A,
14D5,
E93A,
FEFC,
F098,
05EB,
FF87,
F9DD,
F4EE,
FE55,
F89A,
0919,
0514,
F825,
0159,
0292,
09F6,
FFC9,
F7EB,
0444,
EE02,
FA25,
058A,
0A3D,
0C0C,
EE02,
ECAA,
077D,
FFDB,
0044,
0087,
F355,
0422,
EF31,
0A1C,
F6B0,
FA44,
E92D,
F3CD,
0C17,
FFE2,
FE38,
09C9,
FC85,
F45C,
09E0,
F889,
F3AE,
F125,
014A,
F8D5,
F277,
FB39,
1A21,
0DCB,
021D,
EDC8,
FD3D,
00C9,
EEA1,
0C4A,
FD9E,
F7EF,
01FA,
0733,
20D7,
EDAD,
0772,
E471,
FAFC,
FD89,
FA31,
0AF9,
FC0D,
EFB8,
1137,
0C40,
EC46,
1274,
F697,
0981,
0E33,
FF47,
06FA,
F949,
FCBB,
0721,
F9DF,
0D33,
EF96,
07AC,
11D6,
FF74,
FFE5,
0C27,
E4E6,
0108,
F4AE,
00F3,
18F8,
FCFB,
E061,
0013,
038B,
0AE1,
05C2,
0FA1,
F354,
FA10,
F1DA,
FE65,
F096,
F598,
079B,
01BA,
FF0B,
F0B8,
2610,
154B,
F709,
E7CE,
E5A1,
003C,
F43C,
F73C,
064B,
0CB0,
F763,
190E,
1FF8,
F847,
EFF2,
E23A,
F5BE,
0A6F,
02CD,
FC1E,
1141,
F756,
0058,
0462,
F024,
FEE8,
FF0C,
0983,
17FC,
0F78,
F613,
E822,
E7D4,
E646,
02A7,
0C2E,
FAA3,
1A02,
01EC,
F97D,
F6FB,
019A,
DCD7,
0643,
0AA6,
EB7D,
0E1A,
F110,
D3A2,
F4E8,
1382,
036D,
FAD3,
09C6,
08D5,
EF1D,
0370,
0CB7,
F05C,
E5A0,
F6DA,
F8D6,
FB6F,
F21C,
2021,
16D1,
EEAD,
CC95,
EDD8,
0C6C,
ED7F,
04AC,
F885,
0764,
09B1,
107C,
061F,
EE83,
E985,
FB7D,
EEBC,
0030,
05A0,
FDA9,
17F2,
FE1B,
08B0,
14A7,
FB85,
F759,
FBC5,
F649,
2241,
0B7F,
0577,
F366,
F2DA,
F35A,
F9B4,
FEF0,
16CA,
FADF,
F55A,
FD4A,
EB06,
F648,
C807,
0819,
FE40,
E8CE,
FA79,
F026,
CE05,
F610,
15B1,
F84F,
01FF,
0ECF,
FE3A,
F1A4,
0BB8,
E8F2,
ECB5,
EA25,
FE28,
013F,
EA75,
EEA6,
0D4B,
0963,
0ACA,
D90A,
F19D,
FC7C,
F0E3,
0646,
EC2F,
FE2C,
0B97,
FE69,
05EE,
EBAA,
EFAA,
1664,
F4E6,
0289,
05A3,
F8C3,
1E45,
086C,
FB0F,
0317,
F42E,
E80C,
FA7B,
EDAD,
1FE9,
02B8,
0A3E,
0261,
EB27,
FF4C,
0339,
0B23,
028B,
07BA,
08B5,
0246,
FA2D,
F6A3,
D57A,
05BD,
FC4A,
F021,
0B04,
FCD7,
DA10,
DDF5,
0E5D,
EF1A,
0610,
05D3,
EDAE,
F8A8,
F57F,
F973,
FD87,
E266,
FED5,
FED3,
04EB,
EAA1,
12A0,
0090,
FC66,
D32E,
FC70,
FEEA,
E65C,
0A7B,
F291,
0B5E,
0820,
0DEE,
075F,
E5E4,
F8FA,
1B72,
0313,
08AC,
FEA4,
01BE,
13CF,
0A73,
0223,
F57D,
E922,
F102,
F13B,
E3DD,
2906,
FFB0,
1439,
0A9B,
F93A,
EB7F,
0852,
1114,
F9F2,
0331,
1B14,
F5AF,
F396,
029C,
DD57,
0A5D,
F319,
03D9,
0522,
EF88,
E1DB,
DE04,
1A1B,
E577,
0CC5,
FF06,
0623,
FAC8,
FC66,
F2E2,
FBB8,
E3CE,
F991,
FD4A,
FE65,
E65C,
01A6,
F6E7,
FD9E,
DA6E,
035B,
0539,
E960,
0286,
00B3,
0490,
1AA8,
FCAD,
FB2E,
E886,
0437,
2783,
0536,
04A4,
F4BB,
F2C6,
0C8B,
06B7,
0F7C,
079B,
E935,
0395,
FC39,
F4EC,
2A9E,
0465,
0127,
FDAB,
FBFE,
014E,
0976,
02B5,
02C0,
0AFB,
16D9,
01DB,
01EE,
FD14,
CDE5,
0862,
0421,
0D80,
FBB6,
F4FF,
FFE8,
DAA8,
0EE2,
F889,
05E8,
0692,
1332,
0024,
05D8,
0071,
0424,
D2FC,
0C84,
F5C4,
0B9F,
E563,
F5F7,
FA49,
05B4,
DBF9,
0595,
FAC4,
F940,
FBAF,
F9B4,
0956,
10F6,
F0D0,
025D,
F6B6,
FEDD,
316F,
FF91,
F6A7,
EF9A,
F5FA,
07CD,
0C31,
FE4A,
00E6,
E898,
F6B4,
E624,
FE43,
1F19,
F294,
FE8F,
0711,
0631,
059C,
0780,
060F,
FD17,
1409,
155F,
EA22,
FC74,
0292,
D70C,
1074,
0D3B,
1E90,
F01A,
F5EA,
1591,
D258,
0185,
EFD4,
0636,
FF8F,
0412,
02CF,
0F13,
0459,
FA24,
F020,
062D,
FCF8,
04AC,
DDD3,
E6FC,
0737,
035B,
D930,
0507,
03AC,
00B0,
F5A8,
ECA1,
FEC8,
FA68,
F9C9,
ED61,
F96A,
FBB4,
11F9,
036B,
EE13,
E358,
F4CA,
F7A3,
FE1C,
09EC,
FFB0,
F118,
F92F,
E7B2,
08CF,
23F2,
0258,
047B,
0271,
1D8E,
086E,
030A,
02C5,
067F,
04E6,
0B64,
EF5A,
052D,
EF96,
D6B3,
FEFF,
0DDD,
1C6C,
FF79,
F739,
1BCB,
D3CA,
F423,
FE2B,
00FB,
11B2,
F823,
FE15,
09D1,
0B48,
F095,
E2D6,
05A5,
FCE8,
F942,
F2BE,
DC47,
0465,
F518,
E474,
050C,
F82F,
0A15,
ED95,
F818,
F9AD,
F0CC,
F66D,
EFC1,
F1D2,
06F8,
F25C,
FC81,
FBDF,
EB51,
EED8,
FA62,
03F2,
F3FC,
F949,
FB3A,
F9AA,
EB6D,
05F9,
288C,
0955,
0472,
F78F,
FBA6,
F8DD,
0340,
FEA5,
EFD4,
0A8C,
07B8,
0493,
0A65,
F464,
E02B,
110E,
0ACD,
2178,
00F9,
F315,
0F68,
DEC8,
EE85,
F072,
074B,
0344,
F988,
F9B3,
086E,
0614,
FB35,
E47F,
F798,
DE15,
F752,
F049,
DF9E,
0635,
F721,
E33C,
1041,
0913,
1977,
E167,
EE2B,
06C5,
F168,
ECE5,
0198,
ED5F,
EFEA,
EA36,
0CCE,
F2E4,
F99E,
F8CC,
0C12,
017E,
FFE9,
F94B,
F511,
01F6,
FA70,
0F38,
1073,
11EB,
FFC1,
F8A5,
0153,
0CAF,
0670,
04EB,
EBD6,
0A0E,
045F,
FB70,
00BF,
F52A,
D31C,
185F,
0095,
1F78,
F744,
F471,
1AFC,
E843,
02B9,
E2EA,
FACA,
0375,
FB83,
FC6D,
1946,
0E28,
03BB,
E4BD,
F5EF,
E102,
F3D5,
EBF5,
C130,
0C38,
F036,
E658,
0D64,
FE6E,
30E0,
F219,
EBF6,
0D3C,
03F5,
00AE,
FE45,
F535,
F736,
F749,
06B8,
FAE9,
F67D,
0413,
019A,
08E4,
E241,
EEBB,
0966,
FCF9,
0144,
07D5,
208A,
0377,
FE9D,
F4B7,
F51F,
0923,
EF65,
FE23,
FB1D,
0C63,
0791,
F23E,
F8AD,
F111,
DCA4,
1225,
F6CF,
08CE,
FDF0,
F6FA,
1F83,
0E7B,
09D2,
E395,
146B,
F6F8,
0875,
FCB1,
0A3E,
055E,
FE08,
E3F1,
0582,
EF8C,
E8B9,
E6F4,
DAC1,
00B3,
F035,
EB68,
1777,
F80E,
1D9A,
F4CB,
F633,
068F,
FDF9,
FE82,
E837,
F7BA,
04FA,
E929,
0C01,
00C4,
023F,
0703,
0FA6,
004F,
E0BA,
011B,
FFA2,
E901,
0819,
F34D,
08F3,
FD17,
0492,
FD53,
052B,
0C35,
02BA,
0AB0,
10AF,
FECB,
F91F,
E534,
0DC9,
F1BE,
E42A,
0564,
F929,
11DA,
02EB,
F219,
0E00,
1471,
FE56,
EEC3,
0762,
F015,
0ED2,
FAD0,
0410,
01EE,
FD7D,
ED04,
FC50,
F5B6,
EE79,
E9D7,
DE01,
0366,
EF97,
F971,
0110,
FC2E,
110F,
07CD,
04E2,
129A,
FE72,
05AC,
004C,
F903,
FA94,
F160,
11AB,
FE83,
0160,
10A4,
FFE1,
07E7,
E304,
02BF,
0FEF,
F945,
1569,
F420,
04E0,
0578,
030F,
FC91,
0096,
07C8,
F31E,
02D7,
FA63,
FE3A,
F864,
EF93,
0D3D,
F923,
FC9F,
0FCF,
EFF2,
217B,
F835,
FE3C,
0B85,
1530,
FA4F,
F5F2,
1D4E,
14D9,
FDE5,
EDE6,
10AC,
FFE5,
04CC,
E11D,
F19B,
ED34,
EA6D,
0174,
E7B0,
FBBE,
F9C7,
F43B,
068D,
F5F8,
EF18,
1151,
F733,
02DD,
F0EE,
06C8,
0B51,
F1BD,
F93C,
F24D,
0863,
05AB,
F145,
02AC,
F284,
045B,
EEFE,
0ACF,
FF42,
FC4E,
0413,
F912,
1635,
0354,
F82F,
F25E,
028C,
010D,
F3C2,
FDA5,
F47D,
F64C,
04C3,
F0E8,
1153,
FA5F,
ED74,
16E9,
F81E,
0C2A,
03D8,
FB65,
F714,
0CFC,
FDE7,
05CF,
1DBE,
080D,
0120,
F086,
051B,
02B2,
12F7,
FCE1,
ED64,
FF79,
F80E,
FB74,
EC51,
0B6B,
0630,
025F,
1B56,
F438,
0561,
1495,
FD99,
0796,
090A,
FB7F,
F3C8,
F16C,
F642,
F7DF,
0AD8,
F7FE,
FFD8,
0548,
E66E,
0821,
0490,
FD73,
01D3,
1399,
00E3,
00B2,
0210,
0448,
0B72,
F056,
FBE0,
FD4E,
E6E0,
0985,
E421,
0F2A,
0B29,
F7E3,
06D7,
00A6,
003F,
0C3E,
F653,
0D97,
0CFD,
096A,
FB59,
0882,
FBE4,
FF3C,
FDF3,
1133,
ED73,
FD15,
058E,
F8C5,
14C1,
F767,
0126,
FC2F,
F896,
01B7,
F658,
FB56,
FE3B,
F683,
2027,
EFDD,
10A7,
05D9,
FA67,
076E,
ED34,
00B1,
F8C7,
03BA,
EE71,
ECD8,
0C22,
F964,
06DE,
0BEC,
EB54,
0A36,
FEE2,
009A,
0816,
05BA,
F5DC,
0954,
0EFF,
0F43,
FD32,
0327,
030B,
02E1,
F96D,
0D47,
E706,
0927,
0FA3,
F4B7,
00B2,
FCA8,
00BA,
FF61,
08F5,
00EE,
FF97,
0748,
F869,
0756,
ECCF,
074C,
04DD,
06FE,
E74D,
EFB4,
0FCF,
F55A,
03A1,
F66F,
0538,
F352,
0405,
026D,
ED64,
FF07,
0360,
FCBA,
18ED,
F32A,
0F16,
021A,
F632,
0935,
F1F4,
FDE1,
06D5,
0217,
FF66,
015D,
098B,
00C3,
0CBA,
FD1E,
FB9E,
0474,
FBEE,
00F2,
0C64,
14FB,
07E1,
0251,
00C7,
1637,
F851,
03FB,
F6FB,
F65A,
FC0E,
F9BA,
F0F7,
0B02,
0F8D,
FE35,
F481,
FDD0,
020B,
F992,
FC15,
0DE4,
F96F,
09F4,
F1C5,
F370,
F648,
F584,
0B33,
FC85,
F170,
FC8D,
0AE8,
F44B,
FBE5,
FA80,
0812,
F2B5,
0362,
FC90,
F3BF,
F3CE,
FFB7,
0839,
12CB,
FD97,
007A,
0305,
0912,
033C,
FF82,
0FBF,
0264,
F4AC,
F676,
FACA,
02EE,
05F7,
FFE8,
FE20,
F83C,
0AED,
0151,
FA47,
0515,
1176,
032F,
0425,
F883,
02D6,
0824,
F6D5,
0985,
02A9,
FCEA,
0850,
F7C9,
01B7,
0650,
0079,
003A,
035A,
FAAF,
F836,
F477,
FE45,
F4D9,
FC71,
F9C1,
0BA1,
FC76,
FA4A,
05BE,
F6D2,
F653,
088E,
068C,
059D,
01F9,
0214,
01FB,
0225,
0ACE,
F833,
FEC0,
0182,
FEC5,
F603,
064F,
021B,
0192,
FA8F,
03CA,
044C,
005F,
F722,
FD88,
F5A8,
FD3D,
FCBE,
F65F,
0568,
03D3,
FD46,
FFCC,
FDA5,
0212,
FFCE,
FC88,
0D80,
FC70,
F7C5,
052D,
FB34,
0594,
FA75,
034F,
F49B,
FECC,
FB3B,
F752,
F3B3,
FB08,
F65E,
FB4C,
FC8E,
F6A1,
F4AE,
FD10,
FFDC,
F8B0,
0373,
F8B2,
0C8C,
059E,
06C5,
08EE,
0801,
FEC9,
F637,
F5DE,
0497,
063C,
FB7B,
FA28,
FE5A,
FED4,
0418,
FC0C,
022D,
FE34,
FF5C,
FA1F,
0579,
004E,
0201,
05A9,
0639,
FC43,
0912,
F815,
FDF6,
F9C6,
08F8,
F9F2,
0ECE,
F6EC,
04E4,
051B,
FBA9,
F95B,
08A9,
F987,
0E12,
0DEE,
F784,
014B,
F8A6,
FFA8,
F885,
F977,
F476,
FCBC,
FF70,
0717,
F916,
023D,
025F,
0342,
0618,
06A9,
FB13,
F94A,
0180,
08E1,
FA02,
F196,
F6ED,
FA6A,
FE13,
088F,
FA18,
091D,
065D,
F922,
07AD,
FE96,
0736,
F8CA,
09C8,
F7E1,
0728,
F6E3,
050B,
F7E5,
FD95,
FBCC,
06BC,
F7FD,
089D,
06F4,
0BDF,
F735,
00EE,
FEC0,
F9FF,
0232,
F61B,
F554,
0DEF,
0954,
022C,
017D,
010A,
FF7F,
F453,
FB43,
0604,
0C77,
0897,
FF03,
06D7,
F9CA,
F2C3,
FF1C,
04D9,
01AC,
F911,
FD71,
00C3,
0425,
F735,
0158,
021C,
04B8,
F8F6,
00FB,
0A70,
07C4,
08C7,
01C9,
0106,
0018,
F907,
0693,
0302,
F4ED,
F3B2,
026C,
008D,
FB1D,
04D3,
FC46,
0776,
0A49,
FEE6,
05CC,
FA50,
033E,
03FC,
F9DA,
FBC8,
F27A,
0636,
FB3A,
FFB7,
FF30,
F605,
FC88,
F4E4,
FD57,
01B5,
04A5,
02D9,
F9F6,
03F3,
007C,
06BE,
FFF6,
F9D0,
08CF,
068B,
0BC7,
0B3F,
005C,
FF0B,
00F9,
F82F,
FD7B,
0A29,
F9D3,
F753,
FD11,
0674,
0696,
F7D3,
FB4F,
07BC,
FACE,
F845,
F2E6,
0781,
024A,
0861,
F9DD,
F7DF,
010B,
006B,
0808,
FE8F,
FB01,
0493,
FA92,
FC88,
FD5B,
0AFA,
FEFB,
FC1A,
FADC,
0B0B,
084A,
FEE3,
F805,
0884,
F7F3,
00E7,
F98E,
082C,
FA6B,
0099,
F968,
FAAD,
0160,
0298,
0A07,
F95B,
FE5D,
0328,
0525,
F9AD,
0445,
FD6C,
F97B,
052D,
086C,
0993,
0527,
F86A,
F6D5,
00A7,
0245,
FF5B,
05F1,
FDFD,
F795,
0455,
F899,
086B,
0554,
FCBB,
049F,
03BC,
F9FE,
F7F5,
FA6B,
F94F,
07AB,
0437,
F7FB,
FA98,
FB52,
031B,
0013,
F91E,
080B,
FCE6,
0481,
F8D0,
021B,
02D1,
0950,
FE5A,
FF67,
F82A,
FBF4,
0050,
FE99,
FACD,
FE91,
FB29,
0015,
FE1A,
FB29,
07FE,
FAB4,
F892,
FCD2,
F923,
FF7E,
FD71,
06B5,
0153,
07F8,
05C3,
FC19,
047C,
026C,
0A79,
F4A1,
0AE2,
FB3D,
F43A,
0676,
076D,
0654,
0837,
F5EA,
FF71,
0B60,
0236,
02B5,
030C,
FBB2,
083F,
F9F0,
0001,
0133,
F4DB,
EE59,
01D0,
0A30,
F80A,
FB2B,
00C8,
0971,
0096,
FEDF,
FB5C,
0002,
F6E3,
0C53,
F950,
FD65,
F690,
FB1F,
03CF,
FBA5,
0776,
0502,
0623,
0109,
01DB,
0DDC,
F95C,
005B,
FBFD,
F7EA,
FF07,
0D8C,
FEF1,
FB27,
04C8,
04F3,
031F,
FD46,
FAC4,
FE22,
0A3D,
FE8D,
FAFE,
F65B,
03CE,
0435,
072E,
0153,
FF2A,
FE04,
FA7C,
F41E,
0997,
0752,
06C2,
FAEB,
0EFB,
0386,
FE3D,
0BA6,
F8FD,
023D,
FEB5,
FA79,
F692,
F620,
0F16,
0947,
098A,
01E2,
0569,
009F,
F82D,
082E,
F96A,
FD9C,
02A7,
0C73,
FD6F,
06D5,
F550,
02CF,
05D3,
F86F,
065C,
0D72,
1036,
F417,
ED7A,
059F,
10F1,
01A5,
028A,
0B33,
01BF,
021C,
009F,
0B14,
047D,
07E3,
FB2E,
F9E1,
0CF4,
0469,
FC38,
FABA,
0D11,
FFAB,
0CA7,
FE2F,
0A76,
FE15,
039D,
FE0F,
0751,
F310,
0031,
03B9,
FCFE,
04F7,
FDF6,
F913,
073C,
0A12,
F879,
FC39,
0B77,
0AB2,
EC9C,
FA33,
01A8,
F9B4,
02D6,
F4F1,
FCB2,
FE22,
F8DE,
0B52,
020B,
0E27,
0261,
FF3B,
FF99,
00AE,
F3A8,
FF2E,
013A,
FF35,
F024,
0C77,
1529,
F82F,
F78E,
F41D,
01D0,
FCD9,
FCA1,
0472,
063A,
0738,
05AD,
1324,
FD36,
FC24,
E3DD,
1341,
039D,
02A1,
002A,
092B,
03DE,
FB39,
001F,
F105,
0B9F,
1503,
0A48,
F8B4,
0AA4,
0181,
EDFA,
FCB2,
0141,
FFA8,
F85D,
F9D7,
FD8D,
FEC5,
F7D6,
0586,
F8D9,
00D1,
0059,
ED14,
07AC,
F997,
FD1D,
FE18,
FA91,
FF77,
F87A,
FEE5,
F8CE,
10AD,
02EF,
0D9E,
FA2A,
0B59,
F25D,
FA85,
FCA2,
F890,
EB87,
184D,
0B2B,
0096,
EF49,
0716,
0FA6,
FD2C,
133E,
FCB9,
F9C2,
097A,
1001,
0E9D,
FBD5,
067F,
E228,
03AE,
F465,
F76F,
FD5D,
FCBE,
05E8,
F8E7,
0DE9,
F39D,
06ED,
11B4,
FE87,
047E,
1441,
FC04,
05DE,
EFBB,
0502,
F534,
0444,
FF4B,
097C,
0C1C,
FA8B,
12F9,
FB66,
EC0C,
0E6D,
EA3F,
202E,
0AB1,
06E8,
FA9C,
0262,
0126,
F30E,
FD77,
F174,
F915,
FAEE,
08D6,
08D2,
016C,
E569,
FE23,
030E,
FA8A,
E6D9,
170E,
FF04,
0086,
E3B6,
F639,
FE6A,
F89C,
FCC0,
03D0,
10CD,
0831,
01E0,
1AA8,
076E,
FAD4,
DACD,
F79F,
F12A,
F32F,
F865,
05DB,
FA2F,
0283,
F5EB,
F101,
0281,
0537,
FFA4,
0C4A,
0B4E,
0292,
F645,
EE30,
F632,
F113,
076A,
F72C,
0483,
1718,
F000,
FC5F,
0E51,
E75D,
0E27,
F28B,
0FB9,
1DE3,
FB9F,
E1A4,
EC66,
0702,
FFC1,
0DD2,
0E61,
0519,
FAEC,
079C,
0F09,
EF03,
E21E,
F9C3,
0032,
05A8,
EDE9,
10ED,
0BE3,
067F,
CD46,
F320,
0047,
F545,
FBBF,
F846,
0D08,
1BAC,
1B5D,
1B01,
0251,
0125,
DCE6,
E8E9,
0269,
F256,
FE4D,
05B6,
F09E,
06FC,
002B,
F801,
F529,
FFA2,
F4C8,
0C27,
170C,
F159,
F6D8,
E462,
054D,
0A29,
071A,
0321,
F754,
17DC,
FF88,
FA46,
0064,
CBBE,
0B22,
FB08,
F5CB,
0432,
0230,
CAA5,
FB61,
1312,
ECFB,
098C,
110D,
0343,
EC45,
FFAB,
00E9,
F12E,
E17D,
00D6,
03C7,
F9A7,
E189,
160F,
0288,
F7AC,
C25C,
F1A9,
EE9D,
F949,
06D9,
F795,
0772,
F861,
00DB,
130F,
F6E6,
F312,
FCBA,
FE19,
FFDA,
F90E,
F1A6,
0B18,
FC32,
07E3,
08B8,
EE8A,
F062,
0338,
F4AD,
203A,
0A40,
FE11,
0499,
F0DE,
F374,
F863,
08C5,
0238,
FCEA,
058B,
F5C7,
0586,
F95D,
CF7F,
1939,
0669,
EE9D,
0274,
E6B8,
CD26,
EF88,
0B49,
05B7,
FF91,
0042,
EA00,
0592,
003C,
FAA0,
0300,
D638,
0030,
F7A8,
F741,
DEFC,
05DC,
F402,
F268,
BB9E,
0169,
04EC,
F9C9,
039A,
05E5,
06E7,
F6B9,
14FE,
1350,
F92C,
109E,
0AEE,
0858,
09E7,
EE7F,
0B67,
12C8,
0712,
01A5,
06EF,
EA85,
F95D,
F9E6,
E2DF,
0936,
009F,
FAF2,
0013,
E941,
F6A5,
0AFA,
0C80,
EFE2,
F8F9,
125C,
07E7,
0031,
113E,
D1A1,
02BF,
02ED,
0315,
0755,
F5C0,
E318,
DB9A,
0021,
0615,
0B82,
FCE7,
F3E8,
FA99,
F4CF,
F4BA,
FB10,
D2B1,
04E9,
E96A,
EB3F,
D929,
13BF,
F199,
FDA5,
C5F6,
0D08,
F7F1,
FB12,
0B4C,
F8B3,
189D,
F41C,
0322,
1A12,
F12F,
0011,
293C,
F89C,
13FF,
DCC3,
03F4,
FC51,
FCF0,
09CC,
F7A5,
F22C,
0DD9,
F4E6,
F301,
0B3C,
02DC,
0BAF,
0B7F,
F37D,
F57D,
0BAD,
0627,
E894,
003B,
1A14,
030E,
F9F9,
044B,
F2B4,
07B0,
FD43,
F9B1,
F898,
F42E,
F95E,
D2FA,
1532,
FCBF,
01CC,
FA47,
002B,
FF56,
01F2,
EF74,
0935,
D480,
0325,
E8F6,
0188,
DBB0,
1B97,
F4B1,
07AB,
C8EE,
0F63,
ED17,
02AB,
0EF7,
0422,
0EBD,
1272,
05D6,
FCCA,
F364,
045B,
1DD2,
0AC6,
14B1,
DAE8,
0357,
01C5,
079D,
1778,
01EA,
ED02,
FC93,
F803,
FB23,
1AF6,
F63C,
0D44,
0CE7,
FC3E,
03E7,
0E76,
0E27,
F8D4,
02B0,
0E5D,
EE0A,
F611,
FA8A,
F075,
00AA,
0127,
FCFA,
024B,
F665,
111A,
D75A,
0D0F,
EEF0,
0E00,
102C,
0A28,
0552,
0EBF,
F9FA,
F060,
D11E,
0FE2,
ED3B,
0018,
CF84,
0002,
F188,
F7C6,
C78B,
1652,
04DE,
F621,
F89C,
FE7B,
0B6D,
0385,
EF11,
055B,
FC04,
05B9,
2C43,
11BA,
FEAD,
E20C,
F93C,
027E,
0ED5,
0CBC,
FD9E,
01B9,
0C81,
0196,
1AD6,
12E3,
FFA7,
F8D0,
FFBE,
0813,
0F1E,
043A,
1394,
F4FC,
1AB2,
070F,
FDBE,
F35C,
F473,
DD56,
13DC,
0B42,
EEE7,
087E,
F31D,
1DFD,
CEBE,
F795,
DC70,
FBD2,
F794,
05E8,
EDC6,
014B,
0753,
F4AE,
E123,
FE2E,
F570,
0CA4,
D4B5,
F22B,
076B,
F124,
CAE5,
FE2E,
F3FC,
049B,
F720,
FB67,
19FA,
EDA0,
FA67,
0BF8,
F4A9,
050B,
1713,
047C,
F58A,
D6AE,
F99C,
0B4D,
F6EF,
106F,
0B5A,
FA99,
02DE,
011B,
05F0,
2895,
FA8A,
F4BB,
07A3,
1027,
FB77,
0247,
FCCC,
F5BA,
0AEC,
0CDD,
FDA3,
FA4A,
E895,
DF98,
141C,
FE51,
0D4A,
06BD,
F718,
2284,
CD42,
0978,
D0D3,
0993,
F614,
F1AE,
FD9A,
15F2,
07B2,
F834,
E7BD,
0C77,
101F,
018D,
D699,
EEAE,
09CD,
FDE6,
D3B0,
F1BC,
01BD,
0B2C,
F682,
02E7,
0CCB,
FD50,
FC2D,
0AD2,
FD22,
EDFE,
01F5,
0CC8,
01F7,
E2B5,
FC90,
FAD9,
0B27,
0988,
04E6,
FB3E,
0976,
F48C,
0F3E,
2AEA,
FF6F,
F3C0,
0454,
F887,
0370,
0DE4,
0C68,
F442,
0714,
025A,
0F45,
F8C1,
F863,
CD10,
0064,
FA54,
FA19,
F9CA,
ECB8,
3073,
F8BE,
F678,
E3E6,
1461,
F6C5,
0674,
E93F,
165C,
F2BB,
F250,
D78E,
FB30,
E0CA,
09E8,
E449,
E13C,
010A,
F0C8,
D42C,
0159,
04D3,
150D,
EB64,
F812,
0C58,
FB67,
F237,
F30C,
FCFE,
F56D,
FF37,
FF53,
FB3A,
F11E,
EF1B,
1077,
F92B,
1F23,
0929,
FD00,
FEE0,
076D,
F6A2,
1284,
0456,
05BC,
0104,
F563,
F750,
0219,
03DB,
F1C9,
0737,
FAE1,
FC35,
F289,
EA8E,
C92B,
287C,
F8A5,
2676,
0F28,
FA3F,
0F2A,
13B0,
034C,
D37E,
0E27,
FA6B,
FFE6,
FC00,
087D,
FF55,
00AC,
D590,
F707,
F816,
004B,
DD23,
CE9D,
0031,
FA96,
E373,
0274,
EC6B,
1824,
F343,
FB52,
1D4F,
105C,
051B,
0428,
EE57,
05C9,
E4F9,
F5B7,
F442,
F98A,
038B,
F509,
0320,
0177,
FC26,
019C,
145A,
0CA4,
FFA0,
1071,
10C8,
058C,
FB1D,
E792,
0319,
F734,
F91A,
11D2,
0325,
0D39,
051B,
F155,
FAED,
CC40,
1D86,
0214,
252C,
04DC,
EC9E,
17E9,
2067,
07A9,
DEBE,
02ED,
FFE7,
1390,
02C9,
05FB,
0BC5,
01E8,
E092,
EC61,
FA3D,
040D,
EFF0,
C565,
0803,
00D3,
E01C,
F88C,
EF7D,
1712,
F00B,
FE5D,
0C76,
0048,
0674,
F58E,
ED1B,
0EBC,
E479,
0843,
006B,
F713,
02D2,
FDE7,
0622,
F3DD,
084A,
19DB,
074C,
03E2,
EFAB,
0FD3,
0AF2,
0ED9,
00EA,
F0FF,
FC5F,
F91E,
FD6D,
0C3F,
026B,
051E,
0C6A,
23A0,
FC49,
E228,
1303,
FC35,
280C,
090D,
FD8F,
1610,
37B7,
FF90,
DD61,
00D6,
04E4,
0038,
FAB2,
0B67,
03BF,
0584,
D45B,
E495,
EE58,
05BB,
EB28,
D492,
F4FF,
0341,
E2E0,
FDEA,
EB8F,
0652,
0141,
04E0,
1CC5,
0445,
EF08,
0318,
FFEF,
111B,
E8B9,
0DFD,
065D,
FA3E,
1510,
0384,
FB0D,
F5B1,
0B26,
111F,
0312,
186C,
FFF3,
0D7E,
116A,
04E7,
F740,
E6AA,
F50E,
F3EA,
0160,
F1E4,
0D96,
0B5C,
F970,
140B,
0FEE,
E798,
17E0,
FF89,
26B9,
F170,
EBFF,
072B,
246E,
FD1D,
E891,
0D07,
0961,
08C0,
FFDF,
0120,
F2E2,
066A,
D882,
F1DF,
EC06,
E125,
F60D,
C811,
0823,
FA4D,
F378,
0970,
F4F9,
05E7,
1327,
FEA9,
0D01,
0347,
0335,
07B1,
FF35,
F8EA,
F9FB,
1009,
F2AA,
040F,
0FF7,
F32B,
F36B,
FEA4,
0ADA,
06EC,
07AB,
0625,
FD6F,
0FA9,
0C85,
F5CB,
EA8C,
F154,
F1DD,
0224,
0D3D,
DD23,
0ADE,
0F48,
F594,
04A1,
016A,
DFFE,
104F,
0483,
3557,
F12F,
F9A4,
ECE4,
1B92,
FE78,
F1F4,
1FFE,
094B,
01AA,
F7AF,
0496,
FA3E,
0657,
ECE2,
EF17,
0336,
E63C,
FFE5,
E647,
08B6,
0D20,
F7FD,
08DF,
F17C,
1932,
0FCB,
0646,
13C1,
EAF6,
02E5,
04A9,
08EC,
E942,
FBA9,
079E,
06E1,
FF4C,
0E46,
EF2B,
0CF5,
F618,
F8AA,
FFA9,
1D0B,
04E8,
0AA5,
FE73,
1A21,
F82E,
FB79,
086B,
FDC2,
FE79,
047C,
EC30,
1A4F,
1208,
FD7E,
FE98,
0E59,
EEE4,
F01B,
0AF0,
2A06,
FD2C,
FDAC,
E16E,
15FA,
F1F9,
FE8B,
166B,
0810,
E992,
0655,
04B2,
007A,
0D00,
F065,
FEF2,
F9AF,
F7A1,
FEDB,
E153,
02EC,
F68F,
EF97,
22E2,
F54C,
1B6E,
1333,
F6F6,
16C1,
F6D4,
060A,
FFFD,
0465,
010E,
F89D,
F6F0,
0D35,
019B,
0BC2,
F64E,
01CE,
FA0D,
F040,
0D08,
0DB9,
11FE,
1B51,
FADB,
0A1C,
06F0,
0186,
0564,
FFB8,
FDA1,
0AFF,
E578,
0534,
0DD7,
FBFB,
FA16,
04C5,
EC01,
F177,
0B73,
107F,
03D1,
FE7C,
E5BC,
0A91,
089A,
FF08,
0DD8,
0E7C,
FA38,
F601,
09D9,
FC93,
1851,
04DC,
04EF,
F945,
F815,
0359,
E59D,
FFF2,
FB77,
F3FA,
1D82,
EDBB,
F93D,
FF1A,
009B,
05E9,
0476,
FD53,
01FA,
F7B0,
ECCD,
16C0,
0084,
FBD9,
03CD,
F9BC,
F24D,
09AB,
EB63,
F507,
0589,
095F,
08E0,
0CAA,
F989,
10A4,
0584,
F1FB,
0E3D,
0674,
F8E2,
0C4A,
F34D,
09E4,
0832,
0B10,
FCBF,
0043,
F838,
EAC0,
FDE5,
1944,
08D9,
FBCB,
EA7A,
01A6,
0C45,
07F0,
0883,
0C0E,
E833,
F563,
FE56,
011B,
FABC,
08C6,
0B0C,
F0BB,
F5C1,
FE5A,
FB32,
0353,
089E,
0112,
1FDE,
FE45,
EFE9,
F2B9,
FF08,
030F,
0C74,
FEB5,
FCD3,
05E5,
F172,
023E,
FCEE,
0E9D,
021C,
FDDD,
0078,
0EB3,
F39B,
F57D,
F949,
1693,
FD48,
FBF0,
F1EC,
0249,
FBB8,
F4C0,
116A,
F24F,
F33B,
0E37,
ED0D,
00F1,
1680,
FB43,
E4FB,
0308,
F68A,
FA5C,
F727,
18AC,
00F5,
0793,
FB97,
FDA7,
1641,
F57B,
07B1,
01D2,
04DE,
F530,
FDFB,
F0D7,
FA33,
FADA,
F9A6,
FE79,
FC4F,
FBF1,
F615,
02C9,
04F7,
F4E5,
12F0,
F84F,
0A1A,
0B96,
0489,
F735,
0E1E,
0383,
FB2C,
0064,
F019,
FC95,
FFAB,
FE79,
FEE2,
FB40,
FAD8,
F8C8,
F51C,
F9E0,
F8F2,
08BD,
0068,
F822,
001D,
0ABD,
0B2E,
F02A,
FF4F,
F9EF,
F77F,
064A,
F116,
0524,
08DD,
03ED,
F9CD,
08C3,
FA40,
F2A7,
094D,
0724,
05B7,
F5F8,
F0F9,
0D27,
F7D5,
0193,
0570,
0417,
05E8,
0238,
FDB0,
F9C1,
FE76,
0191,
F624,
0A99,
0365,
FA24,
02B5,
FBD4,
0295,
0056,
F8AD,
F7C0,
0558,
FD44,
F816,
0277,
0781,
F9B2,
0256,
07BB,
FF77,
0A80,
02D9,
01C5,
01A0,
F5AB,
F3B1,
F897,
0424,
FFF0,
FCF5,
07A0,
FC8C,
095C,
FC2C,
0BB0,
075A,
03F5,
0EA3,
F9C8,
FF4C,
0A07,
F727,
F749,
FC65,
FBEB,
03F8,
0402,
F6DD,
FDD8,
FFB8,
0FF4,
FBDF,
FA6B,
0253,
FE57,
0770,
0896,
0B97,
00E3,
0555,
02B0,
07BC,
F2E4,
0754,
043A,
FB5B,
FF67,
FD1A,
062E,
0275,
F421,
FA2A,
FA48,
FD50,
FA7B,
FDBE,
FB58,
0031,
0100,
FFB3,
06D9,
04B9,
F426,
F95F,
F8F1,
FBAC,
0BB3,
FD20,
FFD4,
F9E8,
0260,
03E9,
FAD1,
029B,
0180,
FE70,
06E8,
0501,
059A,
0958,
FED6,
0469,
0902,
FD69,
FB3A,
F6AD,
F7C9,
FCB5,
FB45,
FBDC,
0160,
FF7F,
F458,
F7D0,
0CB7,
0607,
FDB5,
F25E,
06C1,
0213,
FFE4,
07FC,
02C2,
01E1,
0539,
F2C6,
0527,
0101,
0AC8,
0CA5,
F9A2,
FF9D,
0B1C,
FE28,
047E,
04C5,
F766,
05A2,
0117,
FDFB,
0243,
02C8,
FEC8,
07D5,
F7F0,
02EF,
02F1,
09D7,
02A6,
F345,
0AD1,
F743,
F35D,
02B7,
F8BD,
05A4,
F8E5,
FCF5,
098A,
0A2C,
0288,
F833,
FB3D,
F901,
FCD4,
F75C,
0989,
01D3,
04B6,
0516,
0398,
0655,
FFCE,
0087,
FE37,
FEB5,
0B1D,
018A,
09AE,
F705,
FF9C,
FF12,
0993,
FF50,
F86A,
0564,
F976,
0DCD,
030D,
0348,
0108,
023B,
0273,
F73A,
F6F3,
0324,
0465,
06A8,
F748,
FEFD,
FC8C,
FF3E,
09DA,
0D2B,
F692,
0425,
F4C0,
0C29,
0864,
FD11,
074F,
FA5A,
FD66,
0599,
06AD,
084C,
02D7,
0477,
0622,
091F,
04BF,
FB9D,
F8F0,
FD94,
0425,
FB47,
02A5,
FD83,
F650,
F9BB,
FD3E,
062E,
FEE9,
09C5,
0BB7,
083F,
0076,
03F9,
0AD5,
FC67,
FEE1,
F6DC,
FF36,
043B,
06AA,
F9CD,
F89E,
0928,
F709,
FF73,
FC93,
FC74,
FCC4,
FE57,
0062,
0F81,
FD0E,
F7AA,
F64E,
0633,
FA33,
0E97,
1225,
FC8A,
FCAE,
0429,
0B08,
0CE9,
FF23,
F902,
FB38,
06E7,
08F4,
FD1B,
FF81,
F874,
F5D9,
F6D7,
FB61,
0A37,
0219,
EFD1,
FDC0,
FE3D,
0BAE,
F512,
FB32,
F5DE,
0783,
FA4A,
113D,
0789,
F9B5,
03E1,
0B45,
003C,
0A74,
0953,
FB88,
05D1,
01FF,
00D5,
0968,
0B56,
0331,
F3AD,
148D,
FEC3,
F88F,
09BB,
050E,
0845,
FEF3,
023E,
0FB7,
082A,
0410,
FF04,
FE46,
FF78,
0192,
FDDB,
FDA4,
F5F3,
06CD,
FD0D,
1061,
F792,
F4BD,
0A09,
FCB4,
092E,
FCEE,
0827,
068B,
FC62,
0AFD,
085A,
0CA3,
005B,
F36B,
F575,
FCFA,
0240,
00AB,
F92E,
081D,
F97A,
0CB4,
0568,
1262,
F804,
0B5F,
0919,
0B4F,
F4D3,
FEC3,
0471,
0609,
0458,
FEBB,
FA06,
071D,
0C22,
0E28,
F533,
0265,
1590,
F7AF,
EE98,
18BC,
01DC,
FF73,
F888,
0471,
0C23,
FE9A,
F917,
04A0,
09FF,
FD97,
021B,
FDCC,
0DC9,
F8E1,
FFAD,
083D,
F50F,
05B2,
0F64,
16A5,
0400,
EE70,
FC3B,
0698,
F831,
0CA1,
FB94,
06DB,
1153,
FB06,
0784,
05B4,
F92B,
F61D,
FE1A,
FA4D,
FACC,
EFE0,
033F,
0BA0,
F79F,
0871,
FBBF,
0CF2,
03E4,
FDFB,
0054,
0B08,
03EF,
F608,
FD12,
0512,
FE9C,
0229,
F6CC,
01FF,
FD9A,
05F1,
0019,
FA54,
0823,
0044,
ED10,
0FE7,
03DD,
000C,
007E,
F7A5,
04B4,
F4E9,
10D0,
FAAC,
0047,
0549,
FF0D,
FA86,
10FE,
ED89,
EFFF,
03DD,
FB8C,
ED3B,
0B09,
1767,
12A6,
E309,
FD89,
0E0A,
F153,
0ACC,
F246,
13DA,
0626,
06BD,
0860,
05A5,
0645,
E50C,
FB8F,
FE5F,
F91F,
F467,
0B13,
0093,
FF38,
04FB,
F6F0,
18CC,
0E92,
0594,
00E2,
0F51,
F1D3,
01A8,
EB39,
13C8,
EE79,
F3AF,
EE2B,
F52F,
081B,
FEC1,
0CD3,
0B15,
04D2,
0FB6,
F05A,
0FBD,
F7AF,
0243,
F884,
F56C,
0145,
024B,
00A7,
F224,
071F,
F77C,
0CD6,
0508,
1032,
DFC7,
FC84,
FE3D,
FDE4,
DD86,
14F1,
0635,
094B,
D244,
04D3,
1007,
F6A3,
0508,
F2F1,
1029,
1262,
10BC,
FC9E,
F9BF,
02A0,
D2E1,
FE2B,
E185,
F233,
FEB6,
028E,
0132,
039C,
F39A,
FD5B,
F82E,
07F0,
FCB4,
F731,
04AD,
FA36,
F6B3,
DD8A,
08C4,
F5F0,
FE04,
EE3B,
F447,
0EEB,
FCB0,
018B,
FEEC,
F0EA,
13CA,
F1DF,
23E2,
169E,
FA32,
FC36,
F467,
FBFE,
FDFE,
031B,
FD76,
1868,
1076,
12C7,
126C,
08CD,
E1E3,
0166,
F302,
0295,
CC6D,
0AFE,
1422,
FD73,
CF39,
F1A3,
0F1E,
F3F2,
085A,
0B46,
FF31,
15CD,
F99B,
032D,
0A4E,
E66C,
D190,
FAF6,
EE3A,
FD98,
FBED,
0C97,
FF8C,
032F,
FE80,
FA03,
02EC,
04CB,
FF6F,
05D7,
1956,
FB91,
0A4D,
DBB3,
0069,
F874,
090A,
075E,
0C54,
1023,
107E,
FEEF,
0B26,
DF66,
04A5,
0A0D,
17B9,
08F2,
FF3B,
D5BE,
F161,
07A2,
F278,
13D7,
FF33,
0D0D,
0176,
158F,
FE87,
F676,
D016,
F3D1,
EBC6,
FF11,
D4BE,
0F16,
1273,
15B1,
C2CB,
0BF9,
F68E,
00E8,
0968,
029C,
F4E3,
18BE,
149D,
111A,
0530,
FD70,
F9EC,
EA56,
027F,
F16C,
FDFC,
0D59,
F864,
F7DB,
031F,
EB13,
00B4,
F7CB,
E9AE,
1039,
05DA,
107E,
0387,
EF52,
FAEF,
0784,
FF0A,
EF51,
F26C,
1486,
FC39,
FAC1,
09F6,
DC14,
0E30,
0542,
11B2,
FD27,
FAF6,
CA62,
EB97,
03B2,
FEE2,
FC0C,
FC83,
046A,
F7C0,
17C5,
F864,
EED3,
DC3A,
0076,
F36B,
F994,
DC3F,
0F02,
0672,
0883,
C5AC,
026D,
F606,
0334,
08DC,
07BD,
F2EB,
0372,
0C16,
10DB,
ECE5,
0788,
124B,
090D,
F889,
EBE8,
FA9D,
0107,
0648,
FE52,
FDE1,
ECFD,
1548,
F8C2,
DE4F,
06A9,
0911,
F8F3,
12F3,
F384,
FBDF,
FC1A,
F32D,
F119,
093C,
260B,
18DF,
004E,
F6D2,
DD34,
09AC,
F0B1,
0A7E,
013E,
E7D9,
C847,
F699,
087C,
F573,
1439,
0548,
F062,
F626,
FA18,
FB99,
F0E6,
C218,
FD50,
F796,
F0FE,
CD0F,
036C,
1163,
0716,
B307,
FB85,
F3E1,
F51C,
0336,
F4D4,
0C0D,
012B,
FF7A,
25A1,
EFFC,
FCF0,
26F6,
1113,
00BD,
EBE7,
FBF2,
12ED,
025F,
F78B,
FFE7,
F3AB,
114F,
F0FB,
EE45,
FDD0,
0A90,
F4D2,
07E3,
FCFD,
00B9,
FA2F,
FA9C,
FA57,
1449,
19E9,
F647,
0233,
0128,
E491,
0253,
E47A,
026B,
1326,
E669,
DFCA,
DEEF,
189E,
125D,
15B4,
FE73,
0170,
FC56,
01E6,
FF45,
FA06,
CA83,
0F67,
F608,
EE50,
CE92,
0C5E,
FE8E,
EB55,
AFF2,
0D21,
F494,
F5C0,
0D9A,
0BA9,
2210,
135B,
1111,
107B,
0E09,
0572,
2086,
08C6,
F872,
D008,
F26A,
0F46,
F06D,
0C8E,
033D,
0D34,
1F01,
0127,
E7B7,
F0EE,
19C1,
FE38,
F9A0,
FB97,
0051,
FC35,
F745,
00BA,
02EE,
1BF9,
F75E,
0341,
FF16,
E2F7,
0ECA,
F17F,
F08A,
0AFD,
EDEA,
0FED,
C9A0,
0E0A,
03FC,
091B,
FC98,
087D,
03FB,
05BA,
0899,
F966,
B84A,
EAE4,
FC71,
FACA,
CA62,
19B2,
FF35,
03E9,
B4FF,
FF26,
FBA4,
0AC7,
EE76,
0477,
12C0,
03CD,
08BE,
13BB,
09AA,
FCC5,
0F0C,
0880,
0DC1,
E410,
016E,
0315,
FFDF,
0707,
FED6,
F678,
0891,
F7C2,
0F74,
0FC6,
09FF,
FB63,
F7B7,
FE8B,
03A7,
08C3,
FDC0,
F887,
08BE,
168C,
F67E,
FFF1,
F1D0,
E4AC,
1E2C,
FDAE,
EEDB,
044E,
F871,
115B,
CE3D,
F6A8,
F4E8,
0AE5,
14CF,
0BB4,
F4C0,
1853,
13A1,
EAC1,
C609,
F282,
0705,
F706,
CFEF,
1A6F,
FE04,
0B0D,
AA15,
034E,
10A4,
F3F9,
FA23,
DEE9,
15E5,
F8A0,
00DC,
0E09,
FDF5,
EEF7,
194A,
16A3,
16F3,
F4BB,
0651,
F914,
14C0,
0917,
FC15,
EC4C,
1115,
FDE4,
06B3,
1728,
013E,
F584,
FD68,
0DDE,
0337,
003E,
F9D7,
FB35,
0047,
253F,
E863,
EE48,
DAA8,
ED79,
1127,
FEC8,
E9B2,
00DF,
E957,
17B0,
E65A,
0A1A,
04F3,
17F5,
0E28,
0916,
FA70,
122D,
0E2E,
DE51,
C505,
FAFE,
F16D,
F63B,
BC0E,
0F18,
E17D,
F89F,
B6D4,
04D7,
01CD,
F348,
EB8F,
FED3,
060E,
F8CA,
FBB5,
1048,
0229,
F371,
0A8F,
0503,
17C9,
F39D,
FC39,
F271,
FA03,
225E,
F845,
078C,
14CE,
0CBE,
1890,
1FB6,
FF4D,
00AE,
FC5B,
1C8D,
E481,
F3E0,
0390,
140C,
F7A0,
0B2C,
F852,
FA45,
DB10,
E677,
15E7,
FA6B,
E4C7,
F5FB,
EF71,
32E8,
EB58,
05D1,
FB05,
0411,
DEAB,
F952,
F066,
0A3A,
077C,
F5A3,
CD8C,
E5A7,
09E1,
0155,
D377,
0AA4,
F8CA,
0090,
BDEC,
18B2,
0774,
0FBA,
EA58,
F84E,
FE0C,
0510,
05F2,
1800,
0A52,
F36F,
F8FB,
07DE,
0053,
F63B,
F588,
0310,
F1CD,
0BAB,
FA22,
F8C3,
1CBE,
FAD4,
110B,
23B5,
FAFF,
0F42,
0DC3,
09B7,
05DF,
0EE0,
ED6B,
02AB,
FC41,
2753,
FC00,
F662,
F316,
E2F4,
1294,
FE71,
E35E,
FB86,
F13A,
22CC,
FD18,
149B,
E0F6,
1452,
F23D,
12FA,
F7A1,
FAF3,
1206,
F3F7,
CA3B,
FC54,
1A57,
E563,
D77A,
064F,
EBDC,
03C3,
CB04,
FAB3,
F239,
032B,
E3FD,
070B,
063C,
FD03,
F202,
1215,
FB75,
F2FD,
F732,
FD61,
F920,
FDF2,
E8F9,
0CC3,
0144,
163B,
064D,
080C,
0844,
F38E,
09EF,
3098,
05BC,
0DF6,
09F2,
F810,
F733,
12DB,
008A,
017E,
1274,
0A94,
02E6,
12BE,
E404,
D8EB,
2600,
0D3A,
EA10,
05CA,
F4CD,
1299,
E7C4,
1029,
DDFA,
114C,
1954,
0DA7,
FFC7,
3043,
FEEA,
F6FB,
CB15,
EF0F,
E5F6,
FD6E,
DCA8,
F6BF,
F76E,
F878,
CF2F,
0B37,
FDEA,
2451,
E182,
FECC,
091B,
FE1F,
FADF,
111A,
FCB0,
FB69,
E2DB,
0F60,
FE17,
FF27,
F3CD,
FBB2,
F6AD,
0136,
FA61,
EF8C,
03CD,
FD82,
FE08,
1A6C,
1943,
00BE,
F024,
FB5D,
0923,
0D5A,
FD2F,
0169,
0974,
F8D9,
0516,
0956,
EC9F,
DCC4,
1A14,
FB17,
FE6A,
0A4C,
E599,
2588,
117E,
1AA3,
CAD2,
FCF5,
024C,
15EA,
0160,
1FCE,
1A94,
0A3B,
C324,
ECDB,
F5F0,
0744,
C3C4,
D36D,
0038,
0B1D,
DA4D,
0826,
F106,
0484,
F121,
0A52,
1807,
1BC0,
FF1D,
1D0F,
DC08,
FF5B,
EC83,
094B,
0B84,
F9A9,
0B23,
F3B6,
06C3,
FE8E,
FFAC,
02EA,
0FB1,
FDC4,
0FD8,
1954,
FBE2,
FAD9,
F72A,
F2B5,
FE98,
000B,
0817,
0022,
FD04,
05C2,
0238,
01D0,
F30B,
DF54,
0572,
00F1,
FDD7,
0477,
F09C,
04B4,
112F,
05B4,
C74E,
09EF,
0E2E,
FEAE,
F75B,
0D2E,
09C9,
1284,
CD1E,
054A,
EFB5,
FC08,
D5E3,
C413,
F1F9,
061D,
E76B,
0EE1,
FE25,
11A2,
012C,
1238,
2651,
049C,
F907,
16F4,
FDE1,
1CB1,
E800,
FDB5,
0771,
006B,
1054,
EFFB,
052E,
000E,
0463,
073E,
04B3,
14FE,
1D89,
FD41,
10A9,
0B8E,
F692,
F76A,
0F89,
EA1B,
F58B,
E371,
FE59,
FFDC,
FE3C,
177F,
0992,
E73E,
0B5C,
E9D5,
0556,
FC07,
F515,
E6DA,
0E49,
0F96,
E4E3,
0EDA,
0107,
00F3,
1014,
22BF,
0F76,
0C6B,
DAF6,
F1C8,
0CE0,
F333,
EDC6,
C87C,
FD64,
FFBD,
E2B5,
1772,
E405,
0E2D,
0B9E,
F5FE,
1B72,
01E8,
02B7,
0DCD,
FF7B,
F97A,
FEA1,
065E,
EF9A,
FA11,
0FFC,
0367,
0875,
F6DF,
01DA,
FF2F,
FBE0,
07BD,
11C1,
09DE,
013F,
011B,
F930,
03E5,
FAB8,
E5A9,
105F,
E160,
FF1A,
07BC,
0DA9,
09E2,
028C,
E7CA,
120F,
0DEC,
0EB7,
0296,
FACD,
CEDC,
1AB7,
0B44,
E1DF,
106C,
0105,
0AD0,
04B8,
1572,
0A9D,
08F9,
EAEA,
FD72,
044B,
E39B,
ED16,
D419,
F390,
0364,
E816,
162C,
FB88,
021E,
23F0,
F8A8,
1109,
0CC4,
F839,
0FDF,
1697,
F708,
F4F1,
0DC0,
11E0,
F4A1,
0914,
EC07,
0931,
D88E,
FD16,
FE74,
FE0E,
FBBD,
249E,
FD7E,
F585,
F23D,
F212,
136C,
0543,
FF4A,
1D90,
E282,
0427,
0666,
0761,
EE45,
05E6,
F07B,
0507,
0D10,
0D5A,
022A,
E80D,
D736,
279D,
0FC2,
EC77,
1574,
0634,
06DD,
F32F,
051B,
0BB3,
FD23,
F960,
08C2,
F3C3,
F00F,
ECE8,
D802,
EBAE,
1005,
F98E,
167E,
F2B0,
03EA,
198F,
F491,
225E,
0FAC,
EF4A,
0D4C,
17FB,
E211,
FFCE,
16FD,
090A,
0631,
1294,
E5C9,
137A,
E040,
EDB4,
103A,
0A0B,
1CAF,
2068,
EB04,
FFA5,
F517,
F6DC,
0D69,
F7E1,
0775,
1122,
EE6D,
0FF7,
00B7,
FD8F,
F827,
0C17,
EC74,
F51E,
04B5,
10C7,
F974,
FB97,
DB55,
13C8,
0747,
F4FF,
121E,
1375,
FD4A,
F37D,
0DAA,
FFF1,
11AE,
F695,
01DE,
F5EE,
F08D,
FCA5,
EF2E,
E6EB,
FB20,
F472,
1459,
F956,
013B,
09ED,
0FB8,
137C,
0600,
FDF6,
054D,
0835,
F806,
070B,
09B7,
014A,
0D72,
FB49,
0997,
FA5C,
F4A0,
F9EA,
0A79,
02B8,
FEF8,
15C0,
04C9,
0D77,
FA05,
FC67,
1240,
F06F,
0A4A,
0CB3,
E922,
0727,
0E84,
FB62,
F4D3,
FB5A,
F5E1,
F2E3,
0D11,
3138,
FA0B,
FCE9,
E29E,
0F4A,
115E,
F9F7,
09BC,
0189,
F17E,
F724,
1124,
0D15,
09E5,
FCB1,
FFA3,
0439,
F501,
F892,
EDD3,
EB11,
066D,
F95C,
1A13,
F466,
F5E3,
FD6A,
0463,
0660,
0052,
F6F3,
061E,
0E3F,
F018,
0197,
0D08,
00B1,
0BF6,
FDBE,
0866,
0472,
F898,
F52B,
08D1,
0A60,
0F46,
05C3,
1204,
11FC,
0168,
0FB1,
17BC,
06DC,
0DAF,
0FB3,
F2FE,
0860,
14DD,
FF0F,
EE7B,
FCB1,
0120,
F798,
FA9F,
1B87,
08CB,
0265,
F013,
0F27,
2685,
FD25,
19B3,
FEEC,
0786,
F44F,
0F0C,
07AA,
FCD5,
F65A,
0A02,
06A0,
FD31,
042D,
FFA6,
EC2A,
1174,
FA65,
1A17,
0098,
F42E,
05B1,
F98D,
08F2,
2365,
F961,
08E1,
0309,
E810,
0851,
FC6F,
082D,
F8B9,
0919,
09D2,
F374,
FC25,
FAAB,
0BC1,
0CE0,
011D,
037C,
03BA,
08FC,
FFCF,
054A,
117D,
0B49,
F913,
077F,
FC42,
111E,
0B60,
F003,
E430,
0B11,
FF93,
F798,
0C11,
171C,
F8FB,
F8ED,
F41B,
FB4F,
05F7,
FCFE,
02DD,
0D2A,
F41F,
FEE6,
FBAF,
FD2B,
1321,
0435,
01AB,
FBD6,
FD94,
FFAB,
00A4,
0681,
F9CF,
0754,
0516,
07D1,
F225,
03E0,
FD3E,
127E,
10E5,
0F58,
F764,
FF88,
FCCA,
0928,
F38E,
02AC,
F095,
F63C,
039F,
0AE5,
EFD0,
FFA1,
FB0C,
1313,
FE33,
0886,
00F9,
1390,
0387,
F426,
0B66,
0F2F,
065D,
0BE2,
FA5C,
0263,
1322,
F95D,
EF4D,
019D,
0240,
EEFB,
FB0D,
0AD5,
0749,
F719,
EEB9,
0090,
13B5,
F541,
078E,
0975,
056D,
F9C9,
0267,
F466,
097E,
0394,
0F19,
FEEF,
0095,
FF12,
F4C9,
F404,
02CE,
076A,
01F0,
FC8D,
FF03,
023C,
FC98,
09E0,
FE30,
0BE7,
059C,
01A0,
01E5,
FA8F,
EE1C,
0812,
072D,
FBB1,
0555,
047E,
052D,
0105,
FF48,
1888,
061E,
F622,
00EB,
05B6,
FE6C,
F609,
00A0,
0E0A,
FF79,
FE2B,
F8FF,
FBF5,
0C7A,
FB73,
031B,
F9F1,
FD7F,
F865,
02A7,
FEA5,
0164,
093A,
F158,
09A9,
0519,
F8B6,
0462,
FD49,
0003,
F9DB,
F1E2,
0233,
03AD,
F789,
0F5A,
0918,
FDDC,
0B75,
0613,
FE4A,
FC35,
03DA,
FEA3,
070A,
F207,
F46E,
FADF,
F9A3,
FAC8,
08D1,
025A,
051A,
0DEF,
09BD,
ECEB,
0B08,
F77C,
F4E2,
F9FB,
FEA4,
0567,
0837,
F695,
11EB,
0BCB,
FC05,
08FA,
0EFD,
FFAC,
FDEA,
021E,
00FF,
0065,
FAEE,
F3DF,
0142,
0055,
00BC,
0955,
0408,
FE39,
FFB2,
FFA5,
00B2,
FBDD,
FFD4,
FD5E,
F9A4,
07EF,
FD2C,
EFEA,
0A5E,
0061,
F373,
F919,
03DE,
FDD0,
F82D,
FEDB,
0ACF,
FE55,
09CB,
FC37,
067A,
0BC9,
FDC6,
FA89,
FB1D,
0472,
08F7,
FF1D,
FD43,
0648,
0084,
0608,
FCBB,
F86D,
018F,
FA91,
0051,
FFF9,
F72A,
F29B,
F8B1,
FB1C,
FDFA,
04BD,
0914,
F20E,
F6A9,
0633,
0476,
F68F,
FEBC,
0424,
087B,
FF6C,
FFA5,
FF15,
F5F6,
04BB,
05F6,
0705,
0169,
08B7,
047D,
F738,
0528,
F5EA,
018D,
FA6D,
092C,
0611,
012C,
F65E,
0031,
FA87,
041E,
0FE6,
0220,
08AB,
033E,
0694,
0189,
FE7E,
099A,
FF53,
0467,
0B87,
F7E6,
0A5B,
FAF4,
050B,
0838,
0555,
08A0,
FE14,
FCFC,
F8C2,
FCFE,
0D2A,
E66C,
F9B1,
F4FF,
0A3F,
F85B,
E778,
0487,
10B9,
F910,
F129,
0246,
F808,
FD44,
016C,
0E76,
FB95,
05BC,
F96A,
FA9D,
F81E,
03F8,
F80D,
F4E4,
11EC,
0358,
F865,
0A81,
12CD,
FDC6,
05BA,
10CA,
FEAE,
F857,
066C,
F343,
FAA2,
FD8E,
04D2,
10E3,
F569,
FE6E,
03B3,
071C,
0ECB,
F82F,
F9FB,
FD25,
0F76,
050E,
05D5,
0C14,
0A3D,
F9D2,
FB34,
FACE,
074B,
1155,
028C,
1225,
FB04,
0593,
FEE9,
F3B2,
0593,
E505,
F5C3,
0F0F,
0458,
FD74,
F44D,
05C2,
0592,
0F9E,
F797,
0C73,
FD58,
06B8,
0195,
0EC7,
0403,
0051,
FD06,
07E2,
0647,
081C,
FCC9,
E7E4,
0F35,
1857,
F924,
098C,
1684,
F6C6,
FB3A,
2648,
F4CB,
087E,
F913,
FFD2,
FE86,
FC3E,
EF62,
FB44,
0077,
F74A,
097B,
09AD,
FD0B,
F73D,
F2F7,
F6A9,
F9D1,
F990,
FF0B,
0C96,
0415,
F066,
F869,
1599,
0272,
04B6,
FBFF,
1028,
0DF6,
0014,
0F58,
01D1,
0457,
E7DD,
F34B,
00EA,
F486,
FA32,
011B,
0ED4,
FD13,
FB80,
0000,
245A,
0842,
F895,
F906,
0FD0,
F939,
0129,
F62A,
0D4D,
F400,
1258,
0A2D,
FF89,
0611,
11AB,
0858,
0A02,
FEC7,
00EB,
005A,
288F,
F3DE,
09CD,
02BB,
F8EA,
FCAA,
0282,
EA3E,
FC9B,
FBF8,
F924,
0DC8,
0274,
FCE4,
E9AC,
F14E,
FBBA,
F529,
E6EA,
0F25,
0EAD,
F492,
EB8F,
FB3A,
FB2F,
0A24,
05BC,
FA46,
059E,
01C0,
F904,
115A,
01C9,
1204,
C336,
F351,
F77B,
011C,
F992,
0531,
F34E,
083E,
0C90,
05C3,
292C,
0139,
F69C,
07EA,
1333,
F652,
F6FF,
ED44,
0EC1,
F49A,
0C98,
F0F9,
0170,
286B,
063B,
0B2D,
0D6E,
EF6D,
0CEF,
EACB,
2FC7,
ED7D,
0222,
FB03,
F5A8,
F6BC,
FD36,
07BA,
05AB,
0EB8,
EFAF,
0D08,
03AA,
03AA,
D8E2,
E735,
06D3,
F260,
D683,
0993,
21FB,
0223,
D2AC,
FC89,
0451,
F51F,
0035,
F8E7,
03E9,
036B,
F9FD,
0C80,
0B0C,
F8CD,
C917,
02BD,
FA46,
02C4,
F918,
0EA2,
074A,
0E03,
0650,
F332,
2417,
F868,
F959,
0548,
0D5E,
0C8D,
F0E5,
E0B5,
FE50,
F162,
0459,
0F10,
FA54,
21CB,
0690,
F85F,
FD84,
E77D,
02DC,
EE22,
142A,
0D18,
08E7,
EC05,
F5FF,
0921,
EFC7,
F986,
FE94,
09BA,
FAB1,
019A,
10B7,
0375,
DD39,
FE82,
F47E,
FF8B,
D0D1,
14AD,
0D0B,
06A5,
C4DA,
F9FD,
FC68,
0C5D,
FD97,
FB5C,
0F35,
0EB0,
FCFB,
1076,
F957,
F489,
C536,
0289,
F992,
F8DF,
0286,
1006,
0498,
FF2C,
04A4,
F482,
2AB7,
0589,
EE2E,
0264,
1AA3,
07AB,
FBC2,
DB43,
F1BE,
F8E4,
FB99,
F9B3,
F762,
24A5,
1444,
FC97,
0248,
EA94,
0D7D,
F5DB,
2077,
0EA3,
025B,
CF03,
F26E,
10D1,
E577,
008D,
0703,
0A88,
047C,
0AD3,
0DA4,
F876,
D7CB,
F823,
0114,
EBC7,
E37D,
0EC8,
1385,
07E0,
B08A,
FBB2,
0108,
F9C5,
05A1,
FDE6,
1041,
16D0,
04AC,
1856,
0652,
FD38,
F1C8,
0FF5,
03BB,
E3C9,
0315,
0B89,
00C1,
0448,
FDF7,
EBC9,
163D,
FCF4,
E5E2,
116C,
0F79,
04C1,
0186,
E4F9,
0157,
F4B2,
F987,
E860,
02B0,
2631,
0C92,
0C9D,
0AD6,
EB1B,
FF27,
0695,
122A,
0C24,
EB8B,
C947,
DE37,
0E35,
029E,
1208,
0B12,
EE6F,
FDA2,
FF53,
F749,
F808,
CCD3,
0E6A,
0E96,
EC8A,
E542,
0806,
18A5,
F633,
CAF7,
0A16,
019B,
132C,
10D0,
ED23,
114B,
FCFE,
0B2E,
2572,
F836,
09DA,
1A0F,
FEA2,
FBB5,
F1EE,
05C0,
13B5,
0C42,
FDBB,
0ABC,
E7D2,
1D5B,
F096,
D87B,
FFD0,
0781,
F630,
074F,
F6DA,
08A2,
1116,
F6A2,
E7BF,
08E5,
19B9,
0AD3,
F247,
FB9E,
DFE4,
063D,
FF1D,
0AD5,
02BD,
F408,
B328,
EBC0,
1C0D,
FA73,
0A7E,
0F44,
F514,
F1CE,
17F8,
FB56,
EB00,
C456,
FFCD,
0EF5,
EA18,
DD79,
07F6,
0DD7,
0A5A,
BBD6,
03EA,
F558,
0D1A,
F247,
F4CB,
069F,
02BB,
0F09,
24BC,
F74A,
EB26,
1A0D,
0C2A,
0B66,
E1C7,
0CEF,
0BDC,
0395,
F85E,
F56D,
ED5A,
25FE,
FA6F,
D5AE,
0344,
0E9E,
0078,
0754,
EF10,
00BE,
FDA1,
04DC,
FFFE,
082B,
2945,
FB9C,
E8B3,
EE7A,
FAD3,
072B,
F9AF,
0DC9,
0ED2,
0BF4,
F4A6,
DFAA,
077B,
0A4A,
055A,
0F27,
0379,
0612,
0C32,
0142,
F721,
BF45,
008D,
0E48,
00FE,
EAEC,
1FDC,
052D,
0E09,
CA88,
FA14,
0A4A,
F09B,
1A4E,
FBC9,
0A66,
0750,
0D30,
2433,
F643,
F719,
0E98,
1333,
0813,
FF38,
0501,
F410,
11C2,
0C32,
14AF,
FA32,
16D5,
FDD2,
F6F9,
FD07,
15DD,
0BBC,
FC31,
F90E,
E65B,
0705,
1933,
F6BE,
09BD,
35E7,
06B9,
0920,
0066,
ED8B,
0632,
F785,
06A9,
074C,
F273,
1B7C,
CC65,
1AAE,
0601,
0F9B,
0BDB,
0ABD,
EF03,
156D,
1675,
F8C1,
BD32,
2134,
0256,
ED10,
F45D,
1440,
F8F5,
011B,
B610,
11FB,
0A6E,
FF1A,
151D,
0A91,
10C7,
FF1F,
0375,
16B3,
F15A,
F9AF,
2D7A,
FF50,
EE7C,
0ECE,
1161,
0901,
05CD,
0846,
F9BB,
EA82,
1941,
FEF4,
F94A,
0810,
0C90,
0094,
034A,
F507,
06A1,
0979,
01A4,
E88E,
FD11,
2515,
F9B3,
0A56,
F935,
E355,
122B,
F3BD,
0842,
0088,
E683,
FF1A,
DB4D,
0FD7,
06AC,
1EFC,
03F2,
F6CB,
FFA0,
1BE0,
059A,
EF76,
C0FA,
F618,
0CB2,
FCD2,
07FC,
1E5F,
F629,
FB39,
D3AF,
002C,
F339,
0615,
00D3,
E816,
123B,
0ACA,
FA5C,
1A98,
FB09,
02AF,
20ED,
FB14,
1879,
0DE1,
FAE0,
F8CE,
FD0E,
0F31,
0471,
F836,
19A7,
F9BD,
052E,
0514,
1851,
0495,
0130,
19B8,
FAD3,
F2F1,
0863,
01FF,
0F27,
32E0,
F03B,
00CA,
FF63,
F0FF,
F864,
FC18,
E029,
0428,
F1CA,
1509,
E852,
10FA,
0FD2,
0431,
0250,
03EA,
F93A,
0550,
148A,
F228,
D542,
FB77,
E42B,
048E,
F435,
224C,
FA06,
F211,
CE45,
0DB9,
F68D,
1285,
1276,
F931,
1A1B,
FB84,
03D9,
1AB5,
DFB7,
105A,
F9F6,
F3A9,
0555,
102B,
015F,
F592,
FFB2,
188F,
0E88,
F953,
0A53,
FDF1,
16AE,
05F1,
FDDC,
FA42,
0202,
FAB3,
F602,
0ADA,
F478,
FEB3,
00FB,
213A,
F634,
EEA3,
F70F,
FBB3,
094D,
F609,
D69B,
180A,
FC62,
15A1,
F1CC,
0DAF,
072D,
0B7D,
08F9,
01EF,
FBAC,
0869,
087F,
F0CC,
D3E3,
0789,
FCCA,
FCC1,
0A7A,
170F,
01C8,
F651,
C945,
EE6A,
FF22,
05DC,
FAF0,
FA60,
199D,
0BE6,
F0C6,
1D03,
EC16,
EA23,
FA72,
F44E,
022E,
F8EB,
F798,
0E7A,
0949,
1C6D,
F3EF,
04EB,
0A16,
074C,
FDED,
0B9C,
0BB2,
F2F7,
0853,
FD02,
0104,
0538,
0D0E,
0620,
0D52,
2638,
D6B9,
F463,
0B0D,
FDE1,
076A,
0A05,
CDB6,
FCC3,
E99E,
0377,
E8A6,
0FF3,
000F,
2224,
0A5E,
11D1,
F942,
1DF4,
014A,
E39B,
DC9A,
0091,
EAE5,
FF7C,
EADF,
1037,
EFDF,
F8AF,
C768,
FFAB,
0206,
198E,
E2E0,
E0FC,
1728,
0F71,
FD40,
1FC3,
DC7A,
EE33,
EAB6,
F516,
0290,
E50A,
FA0B,
DFA7,
EF48,
130E,
015D,
0AF6,
00B2,
FEC0,
1391,
30D0,
FE1B,
07B7,
F485,
0229,
0533,
EF82,
14C9,
F272,
1DB0,
1D17,
F6EF,
0148,
11DA,
EB43,
0F18,
092B,
D7D4,
F9C9,
F05B,
1414,
00B2,
05E2,
E493,
1618,
0766,
0755,
05EC,
1AAC,
FF94,
E85F,
D12E,
05A1,
FBA2,
FDEC,
EE4C,
FB09,
00F7,
EBDE,
C323,
0650,
0399,
1BE0,
E1F3,
01B4,
087B,
0064,
F74F,
19C5,
E06D,
1F4F,
ECCA,
FDF1,
1458,
0E28,
074A,
F5E9,
080A,
0EDA,
138B,
F82D,
FF85,
06A8,
08C3,
28C1,
014D,
0E88,
EB17,
FDA1,
F939,
F3F1,
0A6C,
0094,
F4BE,
0997,
0232,
0AD0,
062F,
FB86,
00B7,
1A84,
DD83,
0AE8,
F6E6,
092C,
1220,
F347,
D95B,
0C47,
FFE2,
F316,
E735,
0FF5,
05F3,
EE51,
E58D,
FF28,
EED7,
04B6,
0E77,
00CD,
FDF3,
0639,
D471,
FE9D,
0068,
10B1,
E43D,
0CE1,
0B94,
FF28,
F6B4,
143D,
FA9A,
FDC2,
E1E6,
0A08,
0066,
F148,
1E38,
F508,
FD7E,
02E3,
EDAF,
101F,
0D57,
14C3,
19DA,
215F,
06A0,
FC55,
0CA4,
0F52,
F245,
02D1,
0B1F,
D4F6,
312C,
2175,
FA79,
F833,
FBD0,
FF0A,
F67B,
FDCA,
F405,
EEAA,
FFD8,
FBB4,
0733,
0F1D,
D068,
020C,
0DC0,
0159,
F1B7,
16A5,
F460,
FFAB,
D88E,
0CDA,
FFAE,
F813,
F08D,
FB87,
FF47,
04AD,
D298,
F7E5,
F122,
0024,
E936,
0365,
1724,
0A8C,
10E1,
1167,
FABF,
0AAF,
F420,
FF4A,
00C9,
FA18,
0CAE,
FCD1,
FCD7,
F53B,
1941,
10FD,
0E33,
0762,
0A23,
14DC,
FDD4,
F9DF,
E85E,
10F0,
F6A8,
009D,
0FDF,
EAB6,
F9B9,
1A5A,
0A6E,
1330,
FA08,
F575,
011B,
01D5,
EC62,
F7D3,
F173,
CC5F,
FCDA,
0BEE,
DBCF,
10AF,
1B34,
FCE2,
EF25,
0F85,
F81D,
09A7,
D90A,
0789,
0921,
1106,
BD26,
E59B,
0CD2,
02EA,
E2C0,
0EE5,
F51C,
FFF9,
F286,
018F,
268B,
0C3C,
070D,
F8D8,
0657,
EBB1,
F34F,
0976,
FC58,
030F,
0294,
F757,
ED56,
FA70,
F27D,
14AC,
1649,
170E,
02FC,
FEBB,
0FE5,
0727,
F002,
05F8,
048A,
F453,
0ED5,
E23F,
2121,
142D,
0456,
1C9A,
0B2B,
0AD6,
F594,
0033,
0317,
EA99,
F2E4,
C9B6,
FE8B,
09F7,
F1CD,
0A42,
FC99,
FE39,
EF5C,
1D4D,
FF44,
09B0,
E004,
0B6C,
FD26,
10AE,
E3F1,
D1D9,
0A0B,
EF7C,
E191,
FD46,
0511,
1245,
0E54,
FFA0,
0C8A,
0E32,
FC3D,
02A8,
F200,
F851,
FABB,
FA85,
FE7C,
F598,
078C,
F493,
FC02,
E696,
FAF7,
0AB8,
101B,
FB65,
0C60,
0FA1,
125F,
05CE,
062F,
19C7,
F8C4,
0094,
0F50,
DF41,
FE74,
17F2,
0843,
0249,
0A4E,
08D7,
0D11,
FECA,
00AB,
03AD,
F5B0,
C9A2,
136D,
1055,
E858,
13C2,
FBCD,
F96E,
F6BA,
1B4B,
F302,
FAFB,
0155,
04A1,
EE11,
F932,
DFBE,
C62E,
F92D,
E5B1,
F1B3,
0DFE,
0F1B,
FB31,
31F8,
FD00,
0F5B,
FF8F,
F3A1,
0136,
FADA,
F629,
0D6F,
1426,
EDEE,
F06A,
FDC3,
F648,
FA8F,
EEC0,
056C,
0B9C,
092E,
03E8,
1C90,
01F4,
F68A,
04B7,
F6AE,
1513,
FE53,
FA12,
011C,
EF1A,
FF65,
03F2,
10AE,
0580,
FF4F,
F502,
F74F,
0C2E,
0810,
EA94,
08F7,
D3BF,
1BAE,
069C,
F9F1,
0210,
F2C4,
0708,
ECBA,
2708,
E9B5,
F54F,
0638,
FFA5,
001B,
D7E7,
EC4A,
E5CC,
F50C,
F2D1,
F666,
1467,
F519,
FED3,
251C,
FCB6,
0E2B,
063A,
037E,
F729,
FB22,
F725,
FFF1,
1CA7,
F2FF,
02CC,
0FD9,
01AC,
FF15,
E73E,
034F,
0EA7,
0039,
ED90,
1889,
F854,
EF99,
0634,
0594,
1FAD,
F958,
FB09,
0559,
E7FC,
FB52,
0D29,
ED05,
FA3C,
09C3,
03B5,
FF72,
080F,
1A62,
F776,
0DE1,
D7EE,
1ABB,
0390,
FED5,
1919,
FE7A,
F7A2,
E2C1,
1AA5,
F338,
09CA,
0680,
13CE,
F5F2,
DE2D,
F84C,
FBB8,
EF32,
FC68,
F491,
1E38,
F013,
F285,
0BB3,
0871,
F9BB,
0232,
0799,
0946,
FF73,
0C79,
019C,
01E0,
06DE,
FB89,
0B5C,
0687,
FA73,
E761,
0A25,
09F2,
1065,
06FE,
098E,
ED8E,
0719,
F927,
057B,
0BF5,
0864,
134C,
F467,
F084,
F8D3,
2FBC,
F42A,
F071,
1E6F,
1727,
F62E,
0CB1,
08B1,
15DB,
0D3D,
EE4A,
0E42,
1ADB,
F2ED,
2213,
FF9B,
002B,
F128,
0334,
E8D0,
08FB,
01F4,
063D,
F771,
EB31,
F83D,
ECFA,
F273,
FAEC,
0504,
12A1,
1EFA,
EA5C,
0E00,
FDD1,
0BDA,
1622,
1348,
01F0,
FFFF,
0265,
F98C,
FD66,
1490,
0133,
1163,
0118,
0184,
F665,
F5F3,
EF91,
13EE,
0843,
05D3,
F052,
0383,
0B68,
ECB9,
113A,
0EB0,
FD49,
F509,
F67C,
FCF2,
201F,
ECF6,
EFB5,
0D9B,
FBC1,
F365,
0267,
1848,
FF0E,
0B65,
F5CE,
07C3,
034D,
FDA9,
0E22,
00AD,
F612,
EBBE,
0552,
F689,
110B,
07DA,
06D9,
F678,
028A,
FFBD,
F3FC,
EBEE,
0224,
F5EB,
0A96,
08CC,
E782,
11D4,
FE42,
0855,
FF49,
0AE4,
FFD9,
0898,
02D2,
FE28,
F303,
0D75,
FE04,
0D25,
FDFC,
10B9,
F3D2,
F87E,
0166,
2173,
0D23,
130A,
F539,
0298,
01EE,
0003,
0E89,
0501,
0787,
02E8,
F3E9,
FEAD,
1E60,
00E8,
EFA5,
0998,
00F1,
E9ED,
FCF7,
1585,
0A7A,
F846,
FA19,
00A5,
089E,
F6BA,
11E2,
FD81,
F3A4,
FD7B,
06A1,
F4F9,
0A71,
FED2,
0C65,
0055,
047E,
062A,
FF6E,
F65A,
02A3,
0835,
003E,
0462,
F8C5,
FAE6,
0191,
01FD,
FFDF,
F897,
0011,
0544,
1296,
08DE,
FF84,
0812,
034D,
0607,
03E5,
096C,
FB82,
FAEF,
FD39,
0E62,
0054,
0D8C,
F95B,
0825,
0B1D,
0168,
FF62,
12AD,
01F2,
FDD8,
FACA,
FF0F,
0A7B,
0390,
F4E2,
F75F,
067F,
F29B,
02A6,
151C,
F597,
FFD0,
EA15,
0133,
FDE6,
F5A9,
070F,
061C,
0522,
F40E,
01FC,
01F7,
0DA3,
FD0D,
05E5,
0E11,
0F51,
047F,
F57A,
0754,
F929,
07C0,
FE22,
0BBF,
F23D,
039A,
FB8E,
FEF3,
FF61,
F458,
042E,
F363,
09BA,
FD62,
F38A,
07FB,
0961,
0A1A,
FE45,
F9C9,
081F,
07A1,
0308,
10FA,
049F,
FB31,
01D4,
055B,
049C,
FD55,
FE9B,
F5E6,
0844,
0231,
F7E5,
FCAD,
0702,
FA42,
024A,
02CD,
FD2F,
FC4B,
F9BA,
02D8,
F8C5,
040E,
F4E9,
FD92,
08A1,
04E0,
FF3E,
FD4E,
FD61,
F9B1,
0A53,
0060,
0189,
0365,
F97F,
F9AD,
087D,
0398,
0A7D,
0940,
FE4E,
0AF9,
0A1E,
035B,
0A66,
08EF,
FCFF,
F9A9,
FA1E,
F7EB,
04B0,
04BF,
FE87,
F5DA,
028F,
0A0D,
FAB5,
FF76,
F93E,
07E0,
090C,
0DE1,
FC52,
FC75,
FB81,
03B3,
0C0A,
0B78,
F31A,
F65E,
FEAD,
F952,
FA35,
F69C,
FE60,
F77F,
FD06,
0335,
06EC,
FBE8,
0AEE,
F8EB,
03B5,
0B5B,
0065,
027B,
01F9,
0519,
FD53,
FB27,
FDF3,
02F8,
0092,
FEBD,
014B,
EFFD,
FFA3,
FEC9,
F3E9,
FD25,
0195,
FFA8,
F66F,
0551,
FF49,
114F,
07F3,
FE30,
FCCB,
FBD3,
F9FD,
FE06,
0498,
06BE,
004D,
FDFC,
09CF,
E75B,
E661,
FB00,
07D6,
F823,
E864,
05E0,
0C52,
FB6E,
FF9A,
18C1,
03B5,
F65E,
FE06,
0836,
F7FD,
F76A,
F4C2,
F8CB,
0972,
041B,
F8B7,
FC4F,
154E,
1B0B,
068A,
F0A5,
1942,
06BA,
0906,
19D6,
0000,
F2E0,
07D4,
FF1E,
FC3D,
05C5,
F5CF,
09D3,
FA6F,
F611,
0F77,
0203,
FE9A,
F63A,
087B,
FD6E,
0DF8,
08C7,
FA4A,
0785,
F500,
FAA7,
F18D,
07AF,
05AD,
0B23,
F657,
0529,
07C0,
044E,
0C10,
004B,
09F8,
D6ED,
F258,
092F,
F917,
FD7E,
FB5F,
FF96,
1724,
076A,
F194,
289E,
0290,
004C,
04BA,
0D66,
F1E6,
EAA9,
EFF8,
06B0,
FC8A,
0021,
F72B,
F313,
056B,
0BC2,
F861,
023D,
07D8,
0367,
FAE7,
210B,
F710,
F44A,
FA97,
07FB,
1208,
0585,
E44C,
FDD8,
0FAF,
F752,
FEB8,
0368,
0AF6,
01E3,
FD95,
F38B,
EFFE,
0568,
1315,
0256,
FD00,
FA3A,
FBA1,
0BF4,
084B,
FB84,
F835,
1658,
19E4,
F51E,
0562,
058B,
1443,
CF60,
FAEB,
FBD3,
F5E7,
F677,
0C8F,
FEF8,
0F1C,
0FDA,
FA6E,
2497,
FA92,
0513,
F1EE,
0A69,
FB82,
F4F6,
F9CA,
0DF6,
F5E4,
02C6,
0437,
FA1C,
1651,
13B2,
0BB9,
F48C,
06B3,
0859,
FBA4,
2781,
F82A,
00F4,
09A7,
F749,
021D,
02E1,
F81D,
02F3,
0667,
0563,
0F6E,
010B,
FCEB,
E9F5,
FC0A,
F9EF,
F798,
F5F6,
F532,
0C4A,
F544,
EB80,
00B6,
FE71,
0D40,
1089,
0D5A,
0991,
0B59,
EFD8,
154C,
FE7B,
025B,
BAA8,
F1C2,
FB60,
F964,
FD49,
0087,
089E,
0999,
031E,
F60B,
3701,
FD42,
F0D0,
08FC,
FF43,
0A4A,
EB64,
E1C2,
0B91,
EF68,
017D,
0AD2,
0758,
280D,
F94A,
F786,
FCA7,
E4D9,
F643,
F168,
1F61,
E59F,
0068,
F50A,
FAEA,
08BD,
0768,
FDA5,
071C,
0E00,
F42B,
0AF3,
FE43,
1150,
EB40,
F989,
0B85,
0988,
F224,
F77E,
1172,
EFA7,
E9E6,
FDA1,
E871,
03F2,
060D,
0293,
083E,
0B1E,
E880,
0A03,
021E,
FA9C,
B73D,
E14D,
01B8,
EEA8,
F7B2,
03A9,
0008,
06E4,
03C0,
EBED,
2AB2,
EE3D,
F78F,
F72B,
077A,
10E5,
F5DA,
D579,
FCDB,
F6B2,
EC46,
027B,
F605,
12B1,
0A0E,
0047,
F97B,
ECC5,
06E7,
F419,
1AC9,
EA6D,
06F5,
E090,
F285,
FB8B,
EC42,
18C8,
036B,
FDBD,
01B7,
0723,
1463,
FAC4,
F25B,
E43F,
1195,
F74F,
F972,
1055,
06A8,
0145,
E8E2,
FA9B,
FB44,
F64C,
031F,
FF11,
0D60,
0920,
FE74,
1DEC,
FCD6,
F218,
E805,
09A0,
FC9F,
F2C7,
F6BA,
1C27,
007A,
FEDC,
FC4D,
F320,
3210,
0EFB,
F556,
021B,
0218,
03C2,
0390,
F6D6,
004C,
E26B,
F102,
EE37,
037F,
191C,
084E,
03F8,
013C,
FF35,
FB9C,
E998,
2DB5,
0043,
FCF5,
CC75,
F73E,
1415,
F96D,
FF35,
F686,
152F,
EF8C,
FD21,
0F8C,
004C,
EE0B,
F808,
02C4,
EEA4,
0117,
F5A5,
1616,
F67F,
E230,
03DA,
0165,
02FA,
0FF9,
F8B8,
0752,
0786,
F948,
1D00,
02AF,
FB83,
05DF,
0D7A,
071C,
EA1E,
0162,
100F,
079A,
004C,
FE35,
F80C,
48F5,
F59B,
D0E6,
FF53,
0BEE,
0408,
F4ED,
E4C4,
00E7,
F83F,
F621,
E7BA,
01C3,
2ED2,
07DF,
FF69,
1BFD,
F835,
FF77,
070D,
1A06,
FD7D,
E98F,
ABEB,
EA2F,
0BB9,
0942,
0E37,
0374,
0B90,
F150,
09FB,
02CB,
F538,
F157,
E6C9,
FD00,
FB8F,
0EF5,
0D81,
FB29,
EEF7,
F29F,
0175,
EC4A,
0747,
FE84,
ED56,
096B,
06FD,
F9E7,
13A5,
EEEF,
F3B4,
0F8D,
09DD,
01B4,
DCD2,
F7C9,
1E5D,
0579,
0398,
EB21,
F44E,
2DF9,
F2DE,
C2E4,
117A,
0BFA,
F9E4,
0458,
EA37,
0286,
FCAA,
F7B6,
07CE,
0F76,
2402,
FC1C,
EA87,
F7F4,
1172,
0379,
06AB,
154E,
06FF,
F06D,
B067,
D85D,
2123,
0007,
1EC6,
1119,
0134,
F5A1,
1E39,
102A,
ED57,
DFA2,
FD6F,
FB33,
ECD4,
1175,
FF92,
0053,
F6B4,
EB34,
0963,
F44D,
FA30,
1786,
F432,
096C,
0B35,
F4CC,
18DD,
ECEA,
01C4,
22A2,
0C43,
F585,
DD2C,
F950,
1474,
048C,
06AD,
FDB0,
F09A,
26F5,
F57D,
EDA3,
0306,
166C,
0141,
F2CE,
FF61,
023B,
F26D,
0BA4,
109C,
090C,
12C6,
03A6,
0230,
103A,
0001,
FEB7,
056B,
2247,
FBC2,
01C0,
0EB1,
D783,
0AF4,
03A6,
0715,
1110,
FC58,
F6B8,
FBEC,
157D,
F7B1,
E730,
0BFB,
0092,
006E,
EAC3,
0A08,
F8B1,
18AD,
EFCD,
F57D,
ECF7,
05B6,
1C0A,
F70D,
0763,
0EF2,
FBA3,
2C74,
F493,
0BF2,
2D3B,
0181,
174D,
04CA,
1F89,
1053,
122F,
ED21,
F2B1,
E2A4,
2F13,
FAA4,
1F24,
0596,
FFE8,
0144,
044D,
01F6,
061A,
F639,
02BD,
0AD0,
0145,
13D9,
F71A,
00E0,
170F,
020B,
F961,
F3A4,
24DD,
FB63,
1862,
161A,
CC24,
12FC,
05B6,
077D,
FF2C,
02A5,
F3A7,
01F9,
FB21,
F9C2,
F44C,
F89A,
F965,
EEDD,
0C90,
2167,
E1B4,
020B,
FBE4,
060B,
11A8,
FCA8,
1C02,
F626,
071C,
0718,
03A9,
42CB,
07D8,
ECF4,
0D2D,
172F,
090F,
04CC,
074C,
F3F5,
0A79,
F52E,
033E,
006C,
35ED,
15EF,
103A,
F57D,
0B98,
0A8E,
F317,
0433,
01CB,
ECB7,
01DD,
0AFE,
16A8,
1BD5,
FAFD,
1B04,
F5F3,
004C,
0363,
ED80,
1BCD,
103B,
FA0D,
1DA6,
F190,
1A0F,
F597,
0CE3,
05A1,
05AE,
F2C5,
02CF,
0FB4,
F56F,
EF27,
F441,
FD1D,
FECB,
0518,
14CA,
DEF2,
F6D2,
C3C4,
FC64,
0576,
FED3,
0EE3,
F9A0,
1F89,
0BD0,
FBF9,
2617,
FBB2,
14A5,
FFF1,
FFA3,
0649,
F1F0,
EC5E,
E696,
FC80,
0B5C,
FF74,
EF8E,
23B7,
0FE8,
0222,
038E,
07B9,
04F6,
F50D,
FE8D,
0CE7,
0568,
053D,
039C,
0C3B,
25F5,
F627,
FA52,
EB49,
F550,
05A8,
0715,
1CAC,
EDB5,
02D2,
17B0,
09BC,
0A0A,
F7C7,
08E2,
FB02,
096C,
FC91,
0BE1,
0913,
E763,
F0F7,
FFE3,
FE88,
1455,
0576,
0E88,
EE1C,
0EC5,
C933,
08A1,
F3BE,
0855,
F79A,
F73B,
0AA2,
09D2,
FDF9,
15CD,
05CA,
F384,
ED60,
0F69,
1212,
03AE,
E9FD,
ED49,
F70C,
1EF5,
FB67,
F07B,
1381,
F6BD,
1605,
FA54,
F2A8,
0F76,
092F,
1443,
FB87,
06FD,
0C0D,
015F,
1525,
3520,
F828,
DB36,
ED09,
E8D2,
13F5,
0676,
02AD,
FC62,
EDB3,
13E7,
FAD7,
1878,
044F,
060F,
FED8,
16E4,
0BAF,
F9A1,
09A8,
E7BA,
E28C,
1548,
07E1,
0998,
069F,
F8BD,
02DE,
F199,
C687,
05DC,
F900,
0B76,
0292,
FD1A,
0910,
05E4,
020D,
1550,
0203,
DA73,
E4EC,
042E,
FDF7,
0591,
FB43,
044B,
FAC5,
0AA0,
0D39,
016E,
155A,
05E2,
FDD5,
FFB0,
050E,
F80C,
1078,
FFEF,
091C,
1346,
0F95,
F0F1,
051A,
2D3B,
FCA7,
FC3A,
06D5,
EA14,
0A28,
01AA,
F47A,
06F3,
FB14,
1442,
0754,
0779,
FFBD,
10E6,
07E3,
0773,
ECC5,
FB8C,
0B39,
E813,
F137,
FE0B,
F2CF,
008A,
F90B,
09ED,
F528,
FF32,
CE4A,
0E39,
F54A,
0A5E,
ED93,
02AC,
0C66,
FC8D,
FEEF,
18A5,
EC31,
EC99,
E45B,
0740,
0BC8,
FD50,
F175,
FB83,
FD18,
12A2,
0764,
FDE3,
18E9,
0846,
1DF0,
1559,
0EA8,
0A67,
F3AD,
F725,
FF9F,
01A0,
F700,
F525,
ED9C,
2798,
F5B1,
E92C,
EF56,
014F,
11CE,
01AA,
F22B,
0D0F,
F1C0,
01D3,
FCA7,
FB66,
F578,
08DD,
0F82,
F42F,
F2B9,
FEFC,
0061,
E9A1,
FBFB,
16A4,
FBFD,
0D16,
F9A8,
07B1,
00A4,
06B6,
B482,
08BC,
024E,
0498,
E0D5,
F931,
F5F8,
0E64,
F72A,
1FDD,
0315,
14DE,
EA71,
1F04,
FABF,
0723,
12A8,
F2A5,
F91E,
FEDA,
F3B9,
F092,
22D4,
FB76,
F735,
30E3,
067C,
0090,
F7E6,
F7B6,
0D81,
03DC,
067A,
EF64,
E7EA,
1CC2,
FFDB,
03C2,
0866,
0C95,
FEE7,
F460,
EBC1,
1053,
FBEE,
F473,
0365,
0C8E,
F097,
0799,
F912,
0FDC,
F17E,
EA77,
FF32,
0A10,
09FF,
06D1,
F228,
014D,
FC77,
F48F,
EDD8,
F767,
A7BB,
0BD7,
069D,
03A0,
C4C3,
FEAC,
DE21,
00AF,
F8F4,
0AAF,
F7F2,
1BF9,
00D4,
12ED,
FEEC,
EEB5,
13EA,
F7B0,
FBB2,
EEFD,
05C1,
FC67,
13F9,
010F,
0E3F,
1895,
0B61,
FD7C,
045D,
023A,
00DB,
FA9F,
19E0,
E8CE,
1EB8,
0714,
0169,
0923,
F316,
F23B,
F069,
0936,
E23D,
08B3,
00E4,
DBAF,
F95F,
0F8B,
E30E,
0CBB,
F610,
FAA5,
0560,
02CE,
1062,
1E2B,
F5D0,
085D,
0555,
F333,
E2CE,
029E,
E26D,
02E2,
B576,
04D3,
F7B2,
0481,
F468,
F28C,
F2AD,
FA2D,
FB0F,
0DB7,
F1B9,
0FAA,
F182,
169C,
FD18,
0754,
FCC5,
030A,
04D0,
0D55,
093B,
139B,
20B6,
F921,
15BE,
10A0,
0124,
017B,
1138,
1280,
0546,
FD3B,
1950,
F241,
0C7F,
E4AF,
EC21,
08A2,
F1DA,
FA16,
FF87,
018C,
F2D2,
0F96,
ED88,
D4BE,
0A9A,
0152,
C7D1,
0B34,
FBD4,
08A4,
F1EA,
06BC,
FF71,
06B8,
FB35,
01E6,
FACB,
F754,
EF19,
E935,
FADE,
F653,
C6B8,
2228,
08D8,
1114,
FF6B,
017D,
FECD,
F9BB,
FCCD,
1258,
F7C3,
F50E,
F32E,
21BB,
FCC3,
00B7,
0C38,
F9FA,
F8F3,
FD9D,
0E93,
0A14,
1084,
FE06,
1388,
08C3,
0415,
F6DA,
FA93,
0890,
1218,
108D,
1D29,
F0FE,
2233,
0482,
EED5,
161A,
F53B,
FFAD,
E6F4,
0218,
F456,
058C,
0607,
C82A,
FF38,
09AA,
D3F1,
0B35,
01A2,
1C77,
FBAB,
03BD,
F78F,
FAC6,
0693,
174F,
0C90,
0F82,
DF40,
C970,
ED52,
032C,
CCC0,
19DE,
1846,
0371,
26D0,
FFA9,
00D5,
0A25,
FC54,
0D74,
E689,
0523,
0D5E,
1A13,
0F46,
03E3,
1FBA,
01C7,
008E,
DE66,
E3E1,
230C,
189F,
0396,
1474,
F1FC,
0B06,
1382,
0F30,
026B,
12CB,
0AC6,
1E4A,
E91B,
04DE,
000B,
F493,
0245,
1127,
0620,
F929,
FAFB,
FBB5,
08E6,
FCC0,
CF57,
0F27,
0F72,
E4A9,
0DE7,
0E1B,
1A7D,
F4D6,
050A,
F75B,
0459,
FB98,
FF3A,
014C,
F024,
E3BE,
C208,
F652,
F7ED,
F168,
0CE4,
0D24,
17D8,
1D4C,
F301,
004C,
08FC,
05D1,
F849,
FA21,
FFDF,
F470,
00D4,
039F,
06CB,
040F,
FC59,
1168,
EDE0,
F3B0,
2A00,
0544,
F860,
1C50,
13D4,
0023,
036A,
F19C,
0576,
0649,
023E,
FBD9,
CEF8,
0BB9,
EE3E,
F38C,
0A1C,
1358,
FCE4,
EBDC,
FB6A,
FA8E,
0B69,
02D6,
D770,
0E29,
0526,
EBA8,
19A1,
FC57,
09F3,
FFEA,
093A,
0847,
EC33,
1737,
04CD,
FE81,
118F,
FBEE,
D714,
F71D,
ECD4,
EA55,
04CB,
F9B9,
FFD6,
1D9F,
F77B,
0775,
F60A,
FDB6,
F5A2,
EEDA,
1090,
FDE9,
F2E6,
078A,
0C37,
0E4B,
F82B,
F3A6,
E80A,
0BB6,
18F7,
0CD4,
FB36,
12E2,
13EC,
0B9A,
0C13,
FF9B,
0B5B,
0E71,
0155,
F533,
E44C,
09D7,
F6D2,
0B21,
FF60,
0A62,
FD29,
FCD4,
0347,
0869,
109C,
1272,
EBC5,
1740,
0C0E,
FA0A,
231D,
0101,
11B6,
E2FD,
013D,
F6D0,
FF47,
0EDE,
1A76,
01EC,
E9A1,
00F3,
E4F6,
FB48,
F9CA,
F516,
F8EF,
033C,
F0D2,
19AD,
F99B,
F7CF,
1166,
0A92,
FEBE,
E640,
0F74,
F885,
F654,
0D92,
108C,
090F,
F55F,
0CC6,
E329,
FC0E,
FC81,
0952,
F724,
0749,
F42F,
1789,
1DA5,
E67B,
0529,
0A19,
FDF1,
E563,
FDF6,
F384,
0B7C,
EDA2,
EBBE,
1246,
13B9,
027B,
0A7C,
0FB4,
16FF,
F72E,
F403,
17FB,
1271,
EEB5,
1946,
F34B,
0993,
F09A,
2089,
F073,
11FA,
0CB6,
F792,
00A6,
FBD9,
F5B4,
EABC,
F3ED,
E990,
0179,
0E93,
0FF0,
FCDF,
15A6,
00B2,
F480,
FB8D,
F23B,
0814,
022C,
05CF,
052C,
08CC,
F90C,
038F,
17AE,
0C8F,
F73E,
F362,
0195,
FF34,
1267,
0427,
0ECF,
EAA0,
009E,
0BC7,
F9A7,
FC8B,
F68E,
1458,
FAB5,
0550,
0334,
104D,
F4B5,
E60E,
13A8,
1174,
F349,
0771,
19B4,
1073,
FFC6,
F43F,
FE18,
06E4,
F1D1,
1BC3,
FA69,
F45B,
F940,
1805,
EB63,
16CE,
148B,
1CB7,
F61C,
0958,
16C1,
FED5,
EC41,
FDB8,
FB96,
13C7,
1A95,
E3C0,
1A69,
0522,
F0B4,
041F,
05D6,
0844,
FD8D,
FBF9,
0148,
FB2D,
161E,
0C5E,
0E92,
FE85,
FFAB,
FB3B,
F120,
F84C,
1387,
0CB9,
0DCC,
EF86,
12A3,
109D,
DF3E,
055B,
0009,
0E3F,
FFBA,
F28A,
FFC6,
27CE,
F122,
E0C7,
0AE7,
FDE9,
FC0B,
0775,
0EB1,
0D68,
099B,
EE36,
11C4,
FC83,
034A,
FBAA,
024F,
03F0,
F616,
07FF,
FB3D,
0285,
F64C,
14C2,
F6FB,
094C,
F763,
F862,
FFA5,
F055,
087C,
0D5C,
03EB,
EC1D,
FA31,
0062,
05A7,
02BB,
06D7,
FAF7,
F8FB,
FEAF,
FB7E,
FEDD,
161B,
FB8F,
0702,
FF69,
072B,
0547,
F676,
F775,
0906,
0819,
0771,
F69D,
0283,
F478,
FE34,
08D3,
0AD1,
0B16,
F836,
0007,
049D,
1348,
F72B,
EB9B,
F668,
0628,
FA42,
102C,
1483,
0102,
FF8E,
F990,
0977,
0A0F,
01DD,
F880,
091F,
0140,
FC35,
02A2,
F90D,
1177,
F88E,
109C,
FF50,
F9D1,
F7A7,
FA60,
0377,
F922,
F8CE,
072E,
0211,
EC76,
FD12,
F9DC,
02B9,
FC58,
0650,
FEA9,
0318,
0277,
FAE4,
F8C2,
02F1,
08E8,
01EC,
095C,
080A,
0405,
F9A4,
F582,
12C9,
FBB2,
FFEC,
F289,
0108,
F63B,
05EB,
0E68,
FCC1,
FD9E,
F2C9,
0727,
01C5,
0708,
F5DB,
F6B0,
F47D,
0232,
0132,
0B18,
0598,
F59C,
F230,
FB88,
F96C,
1020,
0B0E,
F8D0,
FC89,
FAA3,
0262,
0356,
EE49,
FD32,
0912,
FE30,
F5D3,
059D,
FECB,
0384,
0503,
F41B,
FDD9,
0A90,
FCB7,
0377,
03A5,
FFEE,
FAAB,
0277,
0B7B,
FFC6,
0884,
0377,
EE6E,
FE7D,
F6A8,
061B,
F594,
FFB9,
0156,
0341,
04BC,
F086,
0C8B,
FC13,
05C7,
FB9B,
0403,
05FA,
F7DD,
06D0,
F8B2,
0D5B,
FFC9,
00AF,
08FC,
027A,
0C75,
F54A,
F88E,
1454,
02C0,
FEE8,
1D94,
0179,
FCA0,
F7C0,
0571,
0948,
06D1,
F2BA,
06C6,
F879,
F4D3,
0EE6,
EAA4,
FD19,
0996,
0019,
FFBE,
0909,
0D8E,
F30E,
131E,
FBE6,
166A,
0A70,
08BD,
0C40,
FB47,
FCAC,
F953,
F773,
FD74,
FF4A,
01DB,
0ADF,
EDB8,
0045,
FFF1,
FE1C,
FCB6,
F10F,
09C8,
0742,
F972,
FDFE,
1FB9,
FCE8,
F392,
040B,
1569,
F1EF,
01C9,
04A9,
0063,
0B9F,
0C93,
FAF0,
0F8A,
1B27,
1281,
F1A3,
F46C,
143C,
05AA,
FC3C,
216B,
FB27,
EC99,
F996,
F714,
FA00,
05CE,
F1DC,
FB15,
FBA1,
ECBD,
0767,
F1D0,
0D6B,
0007,
FB94,
FF87,
F6DA,
0A9F,
0294,
FCD3,
F428,
FCAA,
FF45,
056B,
05EF,
0361,
FADF,
11F1,
06C3,
FC63,
115C,
0F6A,
03A5,
E02D,
FAB4,
0FD9,
F747,
0335,
02E8,
0620,
1EDC,
F114,
FD3E,
222F,
05D8,
FACF,
EE5B,
088D,
02E8,
F925,
F218,
1390,
F9F3,
04B4,
ECFF,
F91E,
12BC,
0918,
FE32,
EE7F,
1241,
FD8F,
F78C,
1CCF,
FCA8,
FCA9,
FDE7,
F35B,
07E9,
000B,
FC0A,
F620,
032D,
0342,
0A08,
EC38,
FFCC,
F571,
0585,
FE69,
FBB0,
0C69,
03A5,
F97C,
F944,
0893,
0292,
0610,
0F1D,
082D,
FCDB,
0325,
0BB3,
F446,
0B5E,
0768,
F8B1,
D18E,
FDED,
FEBE,
0368,
0D59,
0722,
FF94,
17C1,
F37E,
F3DF,
2631,
FB27,
02CA,
FB2E,
0905,
05A8,
F3DC,
E607,
0DE9,
E457,
00E6,
079B,
F708,
2275,
F1B1,
088A,
F20C,
11D6,
0A63,
05AC,
2CC3,
FC3B,
F7F7,
FD9C,
F7E1,
06DD,
F685,
038A,
F84E,
F901,
FB40,
107F,
0027,
F548,
0840,
F009,
0F2D,
ED97,
0911,
F6CA,
FA7C,
0E8C,
066F,
FD9C,
F6E9,
0DB5,
09E1,
00A5,
0FFC,
04DF,
EEB6,
140B,
0908,
F555,
A5C3,
EF30,
11D7,
FE25,
FDD6,
234A,
FCED,
F8C5,
005D,
F926,
4152,
0793,
F831,
ED09,
004B,
068E,
F466,
EE78,
F3DE,
E12E,
EA8A,
0A39,
F696,
171B,
DF5F,
F662,
FE84,
0197,
FE15,
F323,
18AA,
0105,
F88E,
FFD9,
FB57,
0E22,
F74E,
1B22,
F78F,
0DD2,
F6DA,
F8EA,
F019,
0E5C,
F44C,
E64B,
0DB7,
01F9,
0B7C,
FC9E,
FD36,
F317,
EF02,
FCEE,
06F8,
EFF0,
187F,
00C3,
0A97,
06AA,
FCB2,
0F66,
0648,
02F5,
BE58,
F059,
0B7C,
EBBC,
0200,
F6B5,
F741,
FEB6,
0385,
F490,
4077,
02B7,
F5CE,
E97F,
03E3,
FE47,
F8BB,
EF92,
FD90,
DD1C,
FA10,
FA76,
0A5C,
0F9F,
F1E6,
0706,
FA9B,
06B5,
F52E,
FE9E,
1CCB,
FDF6,
F878,
E3C8,
FE43,
02E6,
043E,
1D5F,
0378,
0E4B,
FCEF,
0910,
002B,
0DCD,
07EC,
F7E6,
154D,
06BF,
F9E1,
13A7,
FFC8,
00C7,
FF81,
04FE,
0520,
FAC6,
12E8,
F168,
0128,
0600,
E00D,
13AD,
F613,
F2BD,
EEF4,
F4F7,
FBFA,
F365,
E6E1,
1613,
EFA6,
FAA1,
12B2,
F12F,
3BF2,
0C9B,
D4B7,
EED9,
E124,
FDE8,
F1BA,
EFD9,
0B5D,
F4A7,
E660,
001B,
F12B,
0975,
0436,
0880,
EFDC,
FEF5,
FE5D,
F2E3,
138B,
0219,
0657,
C30C,
E8F4,
05AD,
FB6C,
0A1D,
0CDE,
0C4C,
08A4,
F89E,
FF44,
ED58,
E9A4,
F84C,
1190,
F7D3,
FFD6,
0CE9,
0F3C,
FCA3,
0787,
10E4,
06CB,
0351,
F4EA,
F929,
0D21,
0162,
EBD9,
0917,
F2D8,
F7CA,
1238,
059C,
1621,
ECB7,
0021,
1409,
F9BF,
DE98,
0758,
FBFA,
3761,
FBDC,
C23C,
F43A,
FEF6,
0CC8,
F94B,
FEBE,
F991,
E54A,
F8A1,
0D6F,
12D2,
090A,
0884,
FA48,
000D,
0550,
0BAF,
E677,
0F20,
E792,
F411,
A5B1,
DA56,
0910,
0033,
125F,
F750,
FE51,
F087,
16F1,
F5BC,
0926,
0481,
0321,
011B,
1451,
0571,
0DB7,
FBC9,
F66B,
1B40,
01F1,
FF6E,
072C,
EFB7,
01E4,
F3E4,
106C,
F58C,
F53D,
EF46,
0882,
149B,
0A8B,
0B1E,
FC8E,
0A91,
19D9,
F6C7,
FFBB,
0D16,
F403,
3242,
F8D2,
DCBA,
E55E,
05DC,
FDA2,
F209,
0A4A,
0015,
FD47,
F57B,
0C59,
F9FC,
FA67,
0266,
FBFB,
0389,
0B29,
1485,
EDD6,
2958,
0A85,
0848,
C8D3,
D2C9,
F29B,
FD66,
0A46,
0E87,
077C,
FB8F,
041B,
F5C5,
0AA5,
F63E,
FF39,
0A31,
07FF,
01C7,
1068,
FEB3,
03A0,
F4E5,
FBCC,
EEAC,
0BDC,
00EF,
EDE4,
F83E,
09D3,
F076,
E45F,
F5D5,
1B43,
26E5,
0CE2,
03F1,
04A6,
045F,
0ED7,
0EC9,
FD43,
F5D5,
0076,
3728,
06CB,
F092,
EFC4,
08E5,
0731,
FA30,
EC25,
FCB3,
0A37,
0068,
0071,
F46D,
F882,
08E9,
E891,
15A2,
0546,
0BBD,
F6C5,
2552,
ED0F,
F3FC,
06A6,
D623,
15E1,
FAAA,
0C6F,
F2C1,
03F3,
F28A,
05C1,
E88C,
F828,
0A69,
F634,
0E9B,
0358,
01DE,
FF21,
F22A,
E301,
05A2,
0679,
ED65,
1274,
000B,
EE9E,
EFC5,
1111,
EFED,
F6AC,
E805,
DB03,
1FA3,
FB27,
0865,
F53B,
DCC9,
088F,
EBB2,
0A4A,
062C,
E3D4,
3BE2,
F8A0,
EEFA,
F0E0,
17F1,
0389,
F69C,
F967,
FD35,
F475,
F099,
F7B7,
0C6B,
FC27,
10C4,
F11F,
15F9,
07B0,
0772,
F62B,
25BB,
F747,
F444,
3CD0,
D811,
0D47,
07C8,
1F1F,
FCA4,
056B,
F36A,
0426,
0482,
F9D9,
06F9,
0D0F,
0AA8,
0472,
F69C,
1164,
EC93,
FA62,
F94D,
0E6D,
FA4F,
0E5F,
05D1,
EEF1,
EE2B,
FC3F,
FB94,
086D,
EFBC,
F949,
26DF,
1081,
06AF,
FB46,
EC25,
F8A9,
07AC,
FBD5,
01DD,
FE03,
369E,
1009,
F96B,
EDDF,
075C,
FFC7,
F704,
FB97,
040E,
F15B,
0B82,
FEC9,
ECE7,
FFC3,
FE7A,
FA24,
173F,
014C,
046B,
E559,
2F9E,
0CFD,
0369,
1D9D,
F614,
1556,
06F5,
1782,
F894,
01D3,
0F99,
08BA,
068F,
F431,
F8E1,
1586,
053F,
F761,
0091,
0B3A,
F39F,
ECB6,
E9AC,
0C53,
02CF,
F982,
0BFD,
0FD4,
EB05,
FD05,
FED7,
0F0E,
FD90,
0873,
F145,
FDA8,
FD9B,
F75E,
F655,
D6AC,
1698,
0804,
0784,
05F1,
3545,
E810,
18C1,
E2C1,
19E7,
07A1,
FEDD,
1652,
F28E,
F9FC,
1626,
FBC4,
181A,
F6F3,
FEB1,
0565,
E7F6,
1141,
081B,
FC6A,
2A21,
F5B7,
F0B0,
F4E2,
F86E,
0373,
061F,
0E28,
F2AB,
0E15,
F8C4,
EE41,
0089,
EDDD,
0150,
0094,
F555,
00BC,
0158,
0CEA,
009D,
103B,
F391,
0F32,
F229,
07D2,
1CFA,
043F,
F0C1,
05FC,
05A4,
156F,
F1FE,
0962,
EE22,
0515,
01CA,
0253,
F8C5,
F4DD,
F89E,
1EE5,
FAC0,
05E3,
3D8C,
F70F,
FE1A,
EA16,
0306,
0914,
FA3A,
0900,
FC3E,
EF36,
0E20,
FB2B,
149D,
020B,
E901,
F616,
EEDB,
0ED1,
FCB9,
F299,
2402,
FF8A,
0DF3,
1E8C,
F232,
FA89,
F90A,
133E,
FC6F,
0773,
0BA2,
EACD,
0AEB,
E12B,
F5DE,
062D,
0C25,
F162,
015B,
1093,
F0D8,
F51E,
D75E,
F482,
0590,
0666,
01F2,
EF74,
EA06,
FD6A,
09C4,
1DF6,
0943,
D578,
CFC3,
12F9,
1482,
07D7,
E6D0,
F743,
FE8C,
1F5F,
F9E2,
FCCB,
4105,
FF86,
10E7,
F371,
0C23,
002F,
FE86,
0B41,
0053,
06E5,
0811,
ED30,
049C,
1B9A,
E8D5,
EDBF,
F73C,
0F51,
06A7,
0962,
2CAA,
F7A0,
00F9,
028C,
053D,
0F9E,
F339,
08A0,
F868,
06F8,
FA96,
ED84,
0A34,
B72A,
F7A4,
0CBD,
F3A9,
FADD,
0B64,
0939,
EC7B,
FC06,
D7B2,
FF69,
0F34,
0256,
FBEE,
F33E,
EEAD,
FAFD,
FED9,
1E45,
F986,
DABC,
F590,
FEF7,
FD5C,
F8A2,
F9FC,
0064,
F585,
09CD,
0551,
0217,
371B,
08BE,
02BB,
0159,
159E,
FB86,
FA0E,
EBC6,
0E8E,
F760,
0693,
0417,
163B,
3AD3,
FF59,
F4D8,
E4C0,
F9C0,
FE0B,
F0F8,
1F67,
F72E,
EF05,
004E,
FC47,
1E80,
F361,
123F,
FD1E,
0BFF,
F9D7,
EDBE,
0528,
E849,
ECD7,
071E,
F9BA,
FFB8,
EEFB,
1593,
EF5C,
03D6,
E81F,
0C6F,
FAE2,
1587,
C98F,
F685,
00D4,
13A4,
F5CE,
2154,
EC8C,
0779,
F69F,
FE81,
1028,
FF93,
084F,
E787,
FE2D,
1115,
E5BC,
F493,
2724,
011E,
0123,
0C20,
10F8,
09FA,
0259,
0EDC,
047B,
FC1B,
04B0,
FCC7,
1368,
2DA6,
0A92,
FAA5,
F106,
02D6,
0429,
F268,
2039,
F9AB,
F840,
F0E8,
0D2F,
FB25,
D91B,
1D22,
0504,
11B4,
F8E1,
FC96,
F4BC,
173E,
09C1,
F7DA,
F881,
E915,
0213,
1359,
F460,
EAE7,
E76C,
06A4,
E9AA,
17D3,
9768,
0624,
EA9C,
0153,
0349,
149B,
00F5,
1467,
FA9C,
03C0,
FD80,
FCEF,
FA99,
0671,
033C,
0626,
F2FD,
07CD,
0F09,
FB9D,
08A5,
24C6,
F757,
0685,
0477,
FC76,
0393,
FF0C,
0584,
12CF,
1062,
16FB,
F1A5,
23AB,
004D,
F4E4,
FA0B,
FC37,
380E,
F2C3,
0788,
E5A3,
025C,
0695,
D6B5,
0AC0,
07BE,
FA07,
017D,
F409,
1017,
09DF,
EF86,
0E98,
F367,
F5D1,
05B5,
1CAA,
F51D,
F498,
CFEA,
0EBE,
0419,
FEEE,
F20A,
EF3C,
F1AF,
FE49,
FCD0,
2318,
04EC,
0C52,
0661,
1168,
0BE0,
F9AD,
EC4C,
EAF8,
0122,
F941,
014F,
F1EA,
1DC6,
0218,
0E6C,
2904,
FCFE,
0029,
FDA6,
FD06,
0DDF,
EE09,
0744,
FA78,
F812,
0D72,
FEEE,
0C55,
040B,
FB3C,
F14F,
076B,
1582,
0224,
FC26,
D29A,
0CAA,
0D8C,
CD65,
1DE9,
01AB,
02E4,
D7E0,
0EA1,
F354,
1C8D,
02DF,
0B18,
FD4D,
0156,
0642,
F40D,
EFF3,
E89D,
B692,
0AF4,
FFE4,
FF1E,
152D,
052D,
E25E,
0117,
0753,
06FF,
F950,
FD18,
F48F,
026A,
20BF,
F13E,
0A38,
F4CD,
F8F9,
FCE6,
0286,
FA3D,
04CE,
FD1C,
074F,
19D2,
024F,
025E,
F303,
0536,
FF21,
0994,
FEF9,
E940,
F56B,
05AE,
FC4F,
0279,
036E,
0C6E,
F568,
0451,
1133,
F9FD,
FCA4,
DFE9,
0D1F,
0FE5,
C3F6,
1EBB,
F6A1,
051F,
0639,
0798,
E8B0,
06BF,
0233,
1510,
EFF4,
F4A5,
E3A3,
ECF2,
0AFD,
047C,
C4B8,
0973,
02B4,
08AE,
2D40,
E410,
E97D,
0813,
0497,
0AA4,
E9A9,
0440,
F51F,
07A2,
0F06,
FAF2,
E874,
EEA1,
FEC0,
E73A,
FF00,
FB61,
10A4,
F507,
0D10,
0E22,
1613,
1478,
0904,
0860,
0E72,
E4E7,
F561,
E985,
FE2A,
0929,
FA9E,
1BD6,
0C1A,
05AB,
F5BD,
0FED,
0901,
FDAB,
FA29,
F28B,
21FE,
049A,
E2F9,
0FB6,
FF05,
0BD3,
EDCC,
12C5,
F2A3,
F7D6,
04FF,
FDBB,
F972,
059B,
06EB,
D481,
F61C,
F871,
EC9F,
0E44,
F888,
0FCC,
11C6,
F994,
DE65,
00CF,
0728,
047A,
F6A9,
0D00,
090E,
F6C2,
0760,
EEBB,
FF1F,
F8F7,
FF8A,
F337,
08AF,
133D,
187E,
07A3,
1597,
02EB,
F0A9,
09F8,
031C,
0452,
F351,
FE97,
0741,
F605,
FA54,
08B6,
F55C,
FCDC,
101C,
2025,
0A65,
0BAB,
0B3B,
0A8B,
F48C,
0106,
0F68,
0DEC,
E6E8,
1B5D,
0BCE,
0464,
EDBD,
121D,
E8C5,
0179,
F9E4,
04A3,
FBA3,
F105,
F137,
D9A6,
FB68,
023F,
D9ED,
0A57,
F728,
FA18,
0B1F,
DF79,
E433,
F897,
FBFD,
0DD7,
E988,
FE97,
14E8,
DD15,
0A26,
ED1C,
FFBB,
1248,
E676,
DF7E,
1B49,
FB49,
19DF,
F1FD,
0792,
0357,
09D3,
05BC,
FC33,
1097,
0E90,
F61B,
FE82,
0DCF,
FDA0,
FF34,
08C9,
F92B,
F9C6,
124B,
FD79,
0EFB,
0EF3,
09DC,
FA7D,
FE86,
098B,
1509,
F036,
1474,
08B5,
0511,
E536,
13FB,
F436,
0EB1,
05FD,
26D4,
FBD8,
00E6,
F5D0,
EC92,
FAED,
FC76,
E72F,
0D47,
0E88,
E807,
0C99,
FA40,
D52F,
024C,
1DAD,
E913,
EE0B,
1A2D,
F85B,
F4F8,
102A,
1351,
0AAB,
13B0,
02A8,
E050,
0FFB,
FB94,
1BA7,
F7EE,
0763,
03C6,
1290,
18DE,
E29A,
F325,
0E7E,
0646,
F068,
ED03,
DB91,
070A,
E7A5,
E66F,
072A,
03D8,
0DD2,
F87A,
156B,
229F,
0F86,
02B4,
17EB,
0FB5,
FF31,
15E7,
05E1,
0DCE,
E84B,
1DA2,
D834,
0427,
11BE,
1C22,
F6DE,
027F,
F7EA,
EBAF,
0721,
09F1,
F100,
13A4,
2783,
EB17,
FFA6,
EE34,
DF63,
05A7,
FA0E,
FFAF,
F8EF,
FA8D,
089E,
FD9F,
0203,
0C21,
0984,
1037,
0834,
EB64,
E49B,
FFA1,
0FB5,
F831,
0D17,
EA21,
132D,
1817,
E6AB,
FB84,
0746,
F609,
F3FD,
F85B,
073E,
13BF,
E809,
E289,
137B,
0E11,
0775,
03B9,
1747,
0F1B,
17CA,
009D,
02C1,
0946,
F039,
0401,
0774,
F80E,
F181,
138D,
E7D3,
07A5,
0515,
1602,
0448,
0B04,
0FBE,
EE66,
F75D,
F28A,
0456,
14A1,
252D,
E78B,
184C,
F9CD,
EA54,
FB8D,
065C,
029E,
01E2,
09F6,
05EE,
F99F,
0371,
087D,
FC7C,
09D2,
FF39,
0014,
F24A,
FBF3,
099E,
FC60,
0F94,
F31C,
FDF7,
05CA,
F351,
08A9,
0117,
FAFF,
EAAA,
00D8,
03D2,
1B0A,
F306,
E6AC,
09EF,
043B,
F4CB,
0BBF,
0885,
0E60,
FD73,
F9DA,
01FE,
1376,
F490,
0CFC,
0A5B,
FE2B,
F6B9,
F869,
F66F,
1632,
0796,
08EE,
04F7,
00F1,
05C8,
FBD4,
0192,
F267,
06E2,
FD39,
189D,
EC10,
038F,
FA9B,
F407,
01E9,
0E37,
088E,
F4FC,
0C16,
FE92,
FA6D,
0C7E,
0877,
EECB,
012A,
078F,
00E8,
FA1E,
EF77,
0BD4,
08E9,
0E16,
F0DB,
0A78,
0877,
EF86,
02CC,
0397,
1286,
ED1C,
FB35,
FFB3,
1C04,
00C9,
F136,
FA80,
030A,
F369,
020E,
1088,
06A1,
FB7B,
F48A,
0F19,
FD2D,
067F,
013F,
013B,
0965,
F7B3,
F1FE,
F2A4,
09E0,
052C,
FCD5,
00CA,
0744,
F9A3,
FFB5,
F856,
F580,
02ED,
F13F,
0F51,
F864,
07B8,
F9B4,
04AB,
062C,
0291,
F1B0,
F4C6,
0C87,
FF7C,
F427,
0333,
0A8C,
F8FF,
0F47,
15A8,
08C3,
F25C,
F1A5,
001F,
FE85,
FDC5,
FF7E,
0F44,
08F9,
F560,
0E47,
FEDC,
0157,
FE96,
08DE,
0585,
04B4,
00D2,
F926,
FB65,
0761,
FF13,
08A6,
FE1A,
EEFF,
FFED,
F7B1,
0429,
0717,
092E,
FF4C,
F766,
FE43,
FCAE,
1A66,
E6CA,
0A8F,
0134,
FAFF,
EBB0,
04E4,
05C3,
EEEE,
1087,
02FB,
03FC,
0B7B,
026B,
0BA1,
0110,
03EB,
FF89,
04B3,
03D8,
FAEF,
FEDB,
FD26,
F424,
0AD8,
F724,
F6EB,
EF5C,
FBB4,
FA45,
003C,
00A3,
F0C5,
FE27,
049E,
FE9F,
0C21,
027D,
F930,
F22E,
034B,
00B3,
06E7,
F864,
FCC3,
11F2,
19A3,
FF7E,
F79A,
F689,
172E,
0635,
0D77,
FE3C,
FBB8,
F535,
FB49,
FF17,
0C5E,
FE70,
F95A,
F912,
02BC,
F566,
1A98,
DC2A,
0DA2,
0D86,
031A,
F356,
F553,
046D,
F371,
FE43,
018F,
0758,
062D,
12AE,
FD7D,
FB37,
F82E,
F8CA,
07F5,
FCB6,
F633,
0EC8,
F3C5,
E54F,
0715,
FFF8,
FFE8,
EC87,
03EB,
F995,
0E96,
FF3B,
F174,
0F16,
014E,
FE52,
F3AA,
14D8,
EBE7,
F88D,
EC3E,
04DD,
0191,
F488,
04FF,
00BD,
0954,
FDF6,
FB57,
00EE,
20A8,
0F50,
F909,
0E0E,
FEE1,
00B1,
063B,
F84B,
0759,
0596,
F499,
1690,
F708,
F4DE,
158D,
CDE2,
0740,
09C3,
F473,
EA7B,
FFBE,
13B7,
0699,
0ECD,
FAFC,
12AC,
F374,
F5E8,
08C5,
FEA0,
FAB4,
02DD,
034C,
00F3,
011E,
04E3,
F6C2,
D16A,
0304,
0D2F,
0542,
F243,
028F,
FCA6,
105B,
EC1D,
FECE,
217D,
FCD8,
05B1,
E006,
1B74,
F941,
EDA4,
E680,
0376,
0872,
EE2A,
FC32,
0125,
13AD,
FED0,
12FC,
F553,
134E,
02F3,
F373,
222A,
FDAB,
E7E6,
02E4,
F6C2,
0676,
066F,
F2A8,
0579,
01DF,
F464,
0AA7,
CEA3,
02C3,
1594,
F426,
F3D4,
03EB,
0BD1,
0A52,
093E,
F38D,
1586,
F2D4,
F042,
0AAE,
05E1,
0D41,
00E0,
039C,
E916,
03B5,
F4A0,
FF6D,
B89F,
ED89,
0B3D,
FA13,
FEE2,
F690,
0103,
1487,
00AA,
FB5E,
1A70,
04CB,
0386,
F05D,
1438,
0C42,
F6A7,
E933,
096E,
FD80,
EFC9,
1467,
F8BB,
1260,
FF68,
0166,
FDBE,
0A16,
0C28,
065B,
1966,
0212,
ED38,
1021,
F335,
0A35,
028B,
F6C4,
0545,
FFAB,
F785,
FDC9,
DBE0,
11FA,
1110,
E972,
0712,
EFA9,
1D90,
F278,
FFA2,
F964,
11ED,
F576,
F9CE,
014E,
085E,
181F,
F63A,
0CB2,
E0CF,
084D,
FB68,
005A,
A3C4,
ED2A,
21C9,
044B,
FE67,
10EE,
0A75,
0548,
FFCA,
F8A2,
289D,
FF69,
FB09,
F42D,
16D7,
0C7D,
FBB1,
EEB0,
0A94,
FDD8,
00A8,
F350,
F781,
080A,
EFED,
F47F,
E116,
0573,
0AEE,
F0D6,
1B22,
14A8,
0BD3,
F15F,
F9A1,
0BA9,
038E,
F79E,
0527,
1818,
E0E9,
09E0,
D887,
FDEB,
F89B,
F255,
22EF,
F1E0,
FBD7,
F43A,
FE6F,
F548,
0B14,
1AFE,
0A75,
09C6,
0326,
0DE6,
F1E5,
00ED,
E96B,
0313,
FB23,
0B2F,
DE81,
F82F,
0606,
E7B6,
FF51,
0733,
F297,
FACB,
F53C,
F029,
2331,
F8C6,
ED88,
E8A5,
FEC8,
038F,
F427,
F068,
011E,
01F7,
0A24,
F34A,
0C8F,
F703,
F99C,
F7A0,
F659,
0616,
061D,
FDC4,
221C,
07D7,
F706,
DB08,
F100,
031B,
145E,
0039,
0779,
F63D,
0211,
07F0,
CE45,
159A,
1575,
FCEE,
1B58,
09E4,
0CC3,
FB49,
10CF,
EF44,
00E7,
EF89,
F987,
0B92,
0008,
049D,
F9DB,
0D68,
F4F0,
E6FE,
0980,
FDCB,
F1AE,
00EB,
1B87,
EABB,
EAF6,
06C0,
0721,
F619,
F227,
E6CF,
3C5D,
0536,
CF9B,
D139,
0329,
08D1,
FB47,
F376,
E909,
E782,
0316,
F18C,
EF2E,
03D6,
FDEA,
FA8C,
F069,
06AD,
FCFB,
F494,
18A1,
FC14,
F7C9,
BB86,
E979,
13D6,
000A,
FA48,
F295,
1708,
EFC0,
0624,
C72D,
09C7,
1C9C,
ECB6,
2B61,
08C6,
03AF,
E95E,
0816,
F823,
FE9F,
F805,
FE33,
010B,
0850,
04EB,
EB7C,
173E,
F0C7,
EA2E,
E4E0,
04B1,
1C31,
F232,
0338,
EBA9,
F73D,
0C0A,
FF18,
0698,
F7C3,
0540,
3A12,
0240,
C836,
CC06,
F6B6,
0B80,
EA4F,
0E8B,
1057,
F48B,
F6E0,
0092,
F9FE,
FCF5,
FFA2,
02E7,
0E37,
0C64,
1374,
E2A8,
0F56,
1A9A,
FCE7,
B5E6,
F0A7,
0E57,
05CA,
FDDD,
E6E3,
0926,
F495,
FF4B,
D5A6,
0365,
20C2,
F797,
1EAE,
0E94,
E770,
FA16,
FDF8,
FFF6,
FB44,
FDE5,
00B2,
076E,
035E,
ECC5,
F941,
FFB4,
E76B,
F385,
F723,
0870,
22F6,
F37A,
0C8B,
0335,
FA94,
10F1,
101E,
F4D2,
F459,
FEF3,
31D6,
F528,
F33D,
D571,
0251,
10F4,
E896,
0D2F,
F86D,
FEE3,
FE38,
F372,
0728,
F370,
029B,
06C9,
0640,
0065,
0E16,
F7B4,
24F0,
F73D,
F19D,
F73D,
D271,
08C8,
F8A9,
0E95,
0216,
039B,
0353,
0E7E,
E4CE,
FAA7,
0EE2,
02FD,
0836,
12BB,
E5B2,
F836,
FD99,
FA8C,
09B2,
0451,
EF7C,
07BD,
0221,
F15B,
F2A8,
F9A5,
F566,
D173,
FCBE,
0865,
33D4,
F64D,
1212,
F237,
EBD3,
0B52,
FDBD,
F9BE,
FD18,
FAB8,
11C9,
F59B,
0A34,
D6F6,
062B,
FE42,
F4EB,
FEA7,
0BF6,
F0F7,
F75F,
075E,
03B2,
F5D5,
0BF2,
F1E8,
F3F3,
0DA6,
0996,
E749,
199F,
0542,
01F1,
0FC2,
C793,
0AAB,
FFA5,
1259,
FDE7,
02A9,
F3AE,
1792,
F269,
FB57,
124E,
F3A3,
083B,
1073,
0C14,
FF35,
F547,
EE84,
E947,
0A1E,
F496,
091E,
0410,
FCEB,
E45C,
0475,
11D3,
BD6D,
0D69,
FAE9,
3324,
0A6D,
0F2A,
F6C0,
E4ED,
F96A,
0517,
EDE6,
F49E,
13BB,
2A52,
08C3,
020F,
DB41,
0F41,
02B8,
F56F,
15F5,
F96D,
F3C9,
F4FE,
0F63,
1089,
FE22,
F9C3,
FFD0,
11E0,
037A,
FFCD,
F423,
3268,
0064,
08C5,
11E0,
EBA5,
1D42,
0B83,
012B,
0084,
FE24,
0A84,
10BB,
F313,
E9C5,
0BD1,
01B0,
0D8C,
00F9,
05FF,
F75E,
F240,
091D,
E758,
FD17,
E88B,
0192,
0EA5,
F0C9,
EB75,
0A5C,
FF08,
D9E6,
FB72,
FAB3,
1E31,
1092,
1355,
EEA1,
F56A,
E19A,
FF88,
E7F8,
FC1A,
0912,
41F3,
021C,
1034,
DDDF,
1DB3,
03D1,
0BDB,
10D3,
DC6A,
F5DC,
0446,
F17C,
1FBD,
F5E6,
0CF1,
F86A,
F595,
06A8,
0BA5,
0292,
3280,
F54E,
FDCD,
161D,
0EDB,
1519,
017A,
093B,
FB15,
12EB,
E91A,
F612,
01AC,
0195,
179A,
0AF7,
FC12,
0E24,
F0D0,
1A22,
F6B6,
FF8E,
017E,
FEF4,
EEEE,
2165,
13F3,
F469,
F98E,
11C4,
0760,
DAC2,
FB85,
0603,
DD5B,
FC5C,
F922,
F85D,
EB73,
D779,
F19E,
FE17,
F886,
0128,
2E1A,
0229,
1498,
E7D5,
2759,
F9F0,
E730,
0D7A,
EDEC,
ECA7,
01A6,
0C8C,
05A7,
EC24,
015E,
ECB8,
F361,
0542,
0651,
F248,
3CFB,
FAC0,
F3FC,
2197,
05D4,
09AF,
F738,
F5E2,
FE1B,
158B,
F853,
F838,
FCDC,
E59C,
FDB0,
FCBB,
094D,
FFF1,
F4F7,
280B,
FAF6,
0087,
0D9D,
0EE9,
0792,
FA9E,
142C,
0328,
D507,
149F,
F4F4,
FD43,
003C,
F9A7,
C966,
297B,
1482,
E62C,
F3E4,
FC0A,
1735,
09A7,
1749,
03C5,
22BD,
FB0E,
152A,
EADC,
0111,
07FC,
EDB2,
FF88,
FA9D,
F458,
038A,
FCC8,
0DDA,
EED0,
F49C,
E6BC,
F58C,
FB6E,
E31D,
F19A,
36CB,
F8A4,
F083,
1FA5,
0976,
19C5,
F7CE,
0A86,
036D,
0598,
F89E,
F119,
05F4,
D096,
1159,
0365,
0724,
EC09,
FE65,
2FA2,
FE82,
F4EC,
FC74,
FBFF,
F4CA,
FCF6,
0C21,
EBAF,
EB26,
0788,
05FB,
02F1,
FE9A,
DCC6,
E002,
FCD3,
0EDF,
02C4,
E2DF,
FEA9,
F093,
FD7F,
F570,
F60B,
1A2F,
F848,
20D7,
EAB1,
EC06,
FDF8,
09CB,
F360,
FC0D,
F0B0,
319B,
FE95,
FF13,
EA17,
EF00,
EFB5,
0D93,
FD93,
E8FD,
15F2,
4380,
EAD9,
F795,
EB18,
1013,
2242,
0AAA,
0FB6,
F48A,
08D3,
1674,
2EB4,
F940,
D658,
03EF,
0904,
0006,
0B13,
FBD1,
0E64,
EF49,
F548,
FD8E,
12D5,
F7F4,
FF06,
FC68,
FA12,
E947,
0C42,
FE39,
0601,
F233,
D3F6,
0102,
10E9,
0499,
16C9,
F3C3,
183B,
F7BE,
1BF4,
0F29,
08C9,
0C91,
039C,
FFCD,
FCCE,
F75D,
FEA2,
02A9,
0466,
EF95,
EFB6,
20D1,
05C9,
0B24,
EE7E,
FAAE,
FDED,
E9D9,
008C,
EA52,
F69A,
422E,
029C,
01EA,
E06A,
FBC9,
0E7C,
0731,
F3D8,
0113,
FC88,
FF67,
00DA,
FCC4,
F3DA,
F1B0,
0B2B,
FF63,
E111,
FC95,
2375,
F408,
FCB8,
01D8,
0111,
0AAA,
148C,
A632,
FBA7,
E371,
0231,
EF11,
0442,
0469,
0E9B,
037A,
1023,
1BC8,
034B,
0F45,
02B5,
046B,
1392,
F618,
00BF,
1501,
FB00,
13D7,
13B8,
0E05,
0301,
09E1,
0E1D,
024A,
F645,
1C2E,
0FCD,
0FAC,
2E04,
EDEE,
0AA2,
0FCC,
15A7,
FE58,
F3B3,
2287,
FD50,
FC0E,
D23D,
0306,
175F,
F935,
039F,
0A32,
0E4C,
F81E,
050A,
0F93,
FF94,
FA96,
17C2,
F3CC,
F1DC,
1072,
092C,
118E,
EB94,
056F,
03C8,
F43E,
096C,
A339,
F1B3,
E7ED,
08ED,
FE27,
1796,
0B87,
0E7E,
03AE,
087A,
FD93,
EE94,
F44F,
FA8A,
0151,
0143,
0217,
03B1,
0F7D,
088D,
05F6,
21F4,
0570,
0063,
F157,
F827,
06B8,
FA99,
F834,
0837,
F930,
50FE,
0A89,
26A0,
0E28,
FE13,
059C,
F5A0,
1DFB,
FCCC,
F716,
E709,
0CBB,
06C7,
D6B4,
0562,
02D2,
15DD,
0611,
0DAC,
0448,
0F8D,
06D5,
15AD,
09A0,
F7A9,
161D,
0296,
F83F,
F656,
D1DA,
0AAE,
F528,
08F4,
0CC6,
FAB8,
D9CE,
FDB2,
EF31,
10BF,
00A1,
05FD,
06A8,
1888,
0B71,
F2F3,
E70D,
0138,
FEB9,
06C9,
0CA0,
1094,
0C28,
0CA1,
1E03,
3206,
08FF,
0B5A,
020D,
FC18,
FBB1,
EB43,
ED5D,
F6B5,
075C,
2BC4,
FBAE,
0F06,
F277,
F4FF,
F088,
007C,
09E3,
FD6E,
0520,
E617,
FEA5,
0803,
B537,
F184,
F8B9,
0A2C,
FBE3,
1B3C,
FD4F,
02BF,
0B9B,
1052,
01B5,
ECF7,
1A8A,
0465,
0035,
FE25,
DF3A,
0995,
FC99,
F114,
3A81,
FC1C,
D840,
0A01,
E6EF,
11EC,
06EF,
1066,
0B1B,
F726,
068D,
FD89,
FA80,
F593,
FB51,
005F,
FA60,
FCC4,
F1EF,
0539,
FF1E,
1DEF,
0914,
0223,
FD72,
019F,
00B1,
F2AF,
EA56,
FE16,
F7DE,
23D0,
FBDC,
2091,
FDE0,
F847,
0017,
E917,
FF46,
FD51,
E92B,
0425,
0ECE,
0AE6,
D693,
06BB,
FD15,
0918,
FB8B,
0208,
F3E6,
ED60,
1B54,
0A90,
EEA5,
09BA,
0730,
E7EF,
FB4B,
F9EA,
F6A0,
0099,
FD33,
0C16,
140E,
00BC,
C258,
FF32,
F496,
11A4,
F598,
0CE9,
08CA,
F3D7,
0676,
FA56,
ED9E,
F4B1,
FABC,
EB79,
09A9,
F25E,
FB6C,
06BA,
1DA8,
0BB0,
FC4E,
0DD2,
00E2,
0646,
0BE5,
F13B,
F48B,
EF9F,
0935,
213C,
13DF,
107C,
0439,
F8F0,
0E31,
F1A5,
FE54,
042B,
F808,
09D5,
0A4B,
FDB9,
D5D4,
FE84,
FC26,
0A30,
E3BB,
FB55,
FD59,
06EC,
071D,
12CD,
FCAD,
1CAD,
18B9,
D8EB,
0923,
035A,
F315,
E016,
ED91,
0858,
0852,
F47D,
BEFF,
1769,
E37F,
1CF6,
FE47,
0DA4,
1836,
FE38,
073A,
FB6E,
05DC,
149D,
FFE7,
E406,
FF33,
FC22,
0D87,
0ACF,
047E,
0117,
0BE0,
0B21,
F084,
FBE9,
0B14,
0826,
F3D8,
02B4,
0466,
1115,
043B,
134D,
03F7,
0D13,
0C3F,
FCF2,
FD2C,
1389,
0303,
0D5F,
0262,
0B75,
DE1D,
F09A,
E754,
12CB,
F102,
0D8D,
0129,
0751,
F816,
1F7C,
0B34,
FF6B,
0599,
DD7D,
0BAD,
F986,
E4C4,
05DE,
FFB8,
00BE,
06F4,
F6C4,
BBB9,
0F3F,
0A8B,
0B08,
EC27,
1932,
0010,
15EF,
026C,
000C,
17B4,
040D,
0890,
DA4A,
00AD,
01F3,
00B5,
047B,
02BD,
12EB,
FD9D,
04F1,
124D,
F21E,
04E0,
FF9A,
F18F,
04AE,
F918,
139C,
FADE,
0C38,
FB8A,
0B15,
FEB5,
060F,
F168,
F261,
046B,
1D1C,
1753,
1B11,
E0EA,
FD0B,
FEB5,
0A52,
E43F,
2AC0,
E4A5,
084E,
FB1B,
11FF,
FC83,
FE2B,
FAE2,
D937,
0FD5,
F410,
EDED,
054E,
F799,
D000,
295D,
EEC0,
99A6,
FE41,
0E30,
FA39,
FBAC,
0F9C,
0F23,
F7F5,
ED7C,
192F,
F527,
0FFD,
E453,
E93E,
0CBD,
F39A,
021B,
E99E,
1291,
FE61,
0C99,
134F,
F201,
F0E3,
1462,
0A14,
E9ED,
FD6E,
EE5A,
09F6,
F92C,
01A0,
F2A7,
12FB,
05E0,
FB6C,
0F46,
227C,
FD20,
0CBA,
0DF5,
1655,
F59F,
F9AA,
02CA,
0481,
EA4D,
3473,
DFA6,
0CD1,
0699,
1475,
F73E,
F842,
0B20,
E99F,
FF51,
1A83,
E580,
06C5,
16E1,
E003,
1226,
E9DF,
D981,
0B8A,
0129,
17CA,
F7A8,
0955,
079A,
FAAD,
11AF,
FBAD,
0924,
1203,
0746,
F89D,
FBCA,
F114,
0FB6,
F8E1,
0B5F,
F7FA,
0384,
0019,
EEDB,
0709,
19DF,
017E,
EB1D,
00ED,
F112,
1BF8,
EA6C,
EF4D,
F0C0,
0A36,
0AAD,
0CC9,
1B91,
1B22,
040E,
02AA,
0A0E,
04FF,
F43A,
F1EC,
09AE,
0B2C,
FC1B,
156D,
F3C8,
FC5A,
1549,
1666,
F447,
F62E,
102D,
FE72,
F774,
08A8,
FA52,
1380,
1D51,
EDEB,
01F0,
F6CE,
E3CE,
0CF8,
084E,
1344,
F5D1,
1545,
05EB,
F74E,
07CA,
141D,
02CA,
01CD,
FFDE,
0294,
E938,
0496,
0B5E,
0050,
FEF2,
01D9,
008A,
16E0,
ED0F,
0700,
0F17,
0140,
F94A,
F617,
11F5,
3745,
ECF9,
D992,
F1DA,
00CD,
0562,
154A,
0F9F,
0AE8,
0748,
00E7,
0F27,
057C,
F5BA,
F3BF,
079B,
F575,
EA1A,
0ADB,
EF4D,
14EB,
0C25,
0072,
0AE9,
00F5,
0A03,
F99C,
F6B7,
0492,
040A,
F31B,
0826,
EAB2,
FDB7,
FA73,
F57E,
FCF0,
0B43,
0ADB,
FBD3,
05D9,
0B46,
F317,
053F,
00B1,
F8D8,
02B6,
FDAD,
00AB,
FCD7,
02A8,
0214,
F6FF,
1146,
FC85,
0A31,
FFE8,
FE57,
080F,
035C,
0955,
F579,
F798,
F81D,
0D45,
F5F6,
F083,
FF70,
0016,
F186,
1C26,
01ED,
0932,
06BC,
FF7B,
FBF5,
FD6D,
FD17,
FAEE,
FD06,
00BF,
F086,
0698,
F6F0,
1315,
F5B0,
0C2E,
F6B0,
06CC,
0398,
F432,
FCBC,
F76A,
F712,
FC0B,
0C06,
E935,
0768,
F912,
FD81,
0088,
1197,
FE6C,
F55C,
FE54,
03F6,
F2B1,
0289,
F569,
EC79,
006B,
0E35,
080F,
03B9,
FAD4,
FC30,
FA95,
0BE2,
F5C9,
0665,
FE3D,
FEE9,
1189,
094A,
1263,
F5D7,
FB2E,
F53A,
0091,
FFE2,
FFF2,
FEA1,
FE7E,
0BFB,
109F,
0BD7,
FF52,
FC37,
F702,
044D,
0362,
00C5,
FB2D,
F51A,
0224,
083A,
1A1C,
E001,
FE15,
0F23,
FF04,
E882,
F7C0,
112B,
FDCC,
0AB5,
F32E,
164F,
08FB,
067E,
FE3F,
03AD,
FD5C,
FAE9,
0961,
0B03,
F27E,
01DD,
FAA6,
F56E,
009E,
0A20,
0111,
F806,
FB2E,
03D3,
1242,
FC55,
EF50,
0098,
FE80,
FF0D,
00B9,
12B8,
F81F,
FF5D,
FB0E,
0030,
033A,
0552,
F44A,
FD0B,
1691,
007F,
F753,
F675,
168B,
1416,
111D,
FE80,
0332,
F763,
FC8C,
F6D6,
16B2,
FA9B,
FEDB,
045E,
0C62,
F2BC,
127D,
D9BF,
1363,
176B,
F42A,
E7A7,
FD7D,
082A,
EB80,
0B2E,
F8FC,
0E90,
0083,
F5B3,
F0AA,
0B6D,
F75C,
F52E,
F950,
026B,
FDCE,
F4D6,
041F,
DFE8,
02BA,
0BAE,
0555,
EDE2,
0289,
F459,
12E1,
0121,
FB19,
F91A,
0E83,
0248,
EECD,
08A3,
F6B4,
FBE1,
F4F9,
0927,
0167,
FCF7,
F3A7,
FDE2,
0530,
FB37,
0632,
F835,
05C8,
0CAF,
064F,
FE27,
FE64,
EAE8,
FCE1,
F7DD,
07AD,
FCFE,
F52A,
049A,
0028,
EB0A,
1410,
C58F,
15F5,
1848,
F98F,
E7A4,
0CC2,
0769,
F2E8,
0903,
FB4C,
0574,
EAA5,
029C,
0613,
0DA6,
0508,
F28D,
08DD,
F463,
F4F1,
0D5A,
FDDE,
CBB5,
FDC3,
1B10,
0B90,
FFD0,
11C6,
0000,
1936,
FA60,
F9D8,
11BD,
0EFE,
047E,
F3F5,
FE78,
043E,
F02A,
DC2B,
06AE,
0DBA,
FDE3,
F72D,
0492,
0E1D,
FF5F,
FF8A,
F3D2,
1042,
0EEB,
FDB4,
0373,
0396,
FF03,
0CF6,
F03F,
FFA8,
F49D,
0D6D,
0938,
FED7,
FDE5,
12C9,
D118,
1D56,
1191,
EDFE,
FF36,
E8DD,
0618,
EE73,
FBDD,
FC54,
0CA5,
F811,
05C5,
F9F5,
FCDF,
16ED,
F048,
0369,
039F,
E52E,
0081,
F45D,
C114,
F1E8,
18C5,
0D94,
074A,
0331,
0193,
0606,
0C34,
EDA4,
FEBD,
137A,
FA2B,
F148,
080D,
0BA6,
E08F,
E24A,
F99F,
166E,
F836,
0E96,
FB4B,
E8E2,
F401,
F8A7,
FC58,
0A3C,
1F6B,
FE37,
0592,
06EE,
FF52,
0756,
0022,
1187,
0022,
EECC,
08F3,
0684,
F668,
0AD0,
C5BA,
106C,
1576,
F7AC,
0C60,
FED2,
20FA,
E67C,
0124,
F02D,
1255,
050B,
F55A,
0194,
011F,
1007,
EF7A,
FCF9,
E253,
EFDF,
0A5A,
F978,
B5E3,
0A59,
1632,
F709,
122C,
FB9E,
0287,
06BB,
038C,
F6D9,
1174,
03FC,
EFEB,
D08E,
FA5E,
034C,
EAEC,
ECBE,
FAAC,
12CF,
038F,
FA43,
0672,
E4E9,
FF1A,
F3DD,
F603,
F9E0,
0A24,
079E,
188E,
F0B4,
FCC8,
E9D7,
F413,
095C,
FDB4,
0CCF,
0883,
0BD4,
F04C,
0430,
C917,
FE12,
1FBB,
FED5,
1775,
021B,
0C37,
F342,
027B,
047E,
1103,
FAE9,
05E8,
02E5,
F5B7,
028C,
EEEC,
FDFD,
F565,
EF94,
F9D7,
02EA,
EF54,
F742,
1D53,
E7DA,
EEF9,
09EB,
030E,
0E04,
0C65,
FFBF,
FC36,
FABC,
DE8D,
D2AC,
EAB6,
057F,
FBE7,
05DA,
0578,
FA45,
F2C8,
FF3C,
F741,
F68C,
0AF9,
05FA,
022C,
FA53,
0041,
060C,
0A49,
F6C7,
12B7,
D697,
EF76,
1074,
F0F1,
060E,
0D85,
047C,
F550,
1009,
C448,
1734,
11F9,
08C8,
0EC9,
FEBB,
0E52,
F809,
0103,
F469,
0E3F,
FD03,
F31B,
04F3,
F233,
107B,
E7CD,
FAAC,
02BD,
DB28,
F2AB,
F7BB,
FB3B,
F10F,
09D9,
E620,
F51A,
0049,
03BB,
11F5,
0373,
FFB3,
F665,
0342,
C765,
D305,
EDDC,
F4A4,
F366,
008A,
F3EA,
08B6,
FC1C,
0EB3,
03BB,
0095,
FDE9,
0FA5,
F99D,
EFE7,
18E3,
0482,
0E85,
0F0F,
F73C,
BEED,
EE61,
0E6A,
0801,
0D18,
0023,
0E98,
E640,
08FC,
D313,
0DD3,
0ABE,
F1D2,
17EE,
10F5,
F530,
F6A0,
FAF8,
F4B8,
12FD,
0485,
F781,
FDAE,
03B2,
FF01,
EC97,
0114,
FBA4,
E7C1,
EC3A,
083D,
0A9D,
EA15,
0E14,
F435,
F782,
28DA,
F626,
08F4,
0A87,
F9F8,
F1B2,
0991,
CF8A,
DBFD,
F4A7,
FD64,
F452,
FBBB,
E9D0,
0BBE,
0C4B,
FF71,
FCCD,
F69B,
0797,
056A,
FD26,
08AE,
FE9B,
F31A,
1212,
FB4A,
004B,
CFFC,
E3CA,
0997,
06EF,
106D,
E781,
0CCE,
FDA4,
000A,
DC24,
F4BE,
0B6C,
0036,
0FCF,
1124,
0A8B,
0A98,
F517,
0BF0,
1610,
050C,
0CE3,
0214,
0754,
F9CE,
E976,
0599,
065C,
D713,
0AB6,
EF04,
0508,
F411,
1A3C,
0E52,
E8B8,
159A,
02FF,
063F,
0A54,
F87D,
03F3,
F63D,
E773,
E994,
18DB,
042F,
F844,
11BA,
0A02,
FA3C,
EFA9,
0E1E,
18EF,
F70E,
0227,
01B8,
EFE6,
0631,
0A79,
FBD1,
02FC,
05F5,
049E,
F7D5,
CE86,
0BBC,
0BCB,
FE02,
F6E3,
1122,
F275,
1F00,
D564,
1179,
05C8,
0837,
0183,
0AEE,
01E3,
F8FA,
F96D,
FC55,
01DD,
0B39,
F20D,
0A37,
11D4,
F99B,
F856,
0B8D,
F448,
E739,
EF50,
0615,
2071,
EB44,
1545,
F948,
020B,
232D,
0030,
1CF0,
069C,
F864,
F270,
F765,
079E,
E499,
0C5E,
08BE,
F2AB,
FF32,
EEEB,
F4D6,
FB82,
0856,
F43F,
0AD1,
0613,
1604,
EFAF,
FED4,
FE6D,
031B,
15BF,
FAF1,
F557,
0AB1,
D6BB,
FBD0,
0EE4,
0D00,
FC72,
FE1F,
F865,
12B8,
E133,
FE3D,
0F4D,
E400,
05B5,
12BD,
FEEA,
FDF0,
EEAF,
0876,
271B,
0B6F,
F813,
10CD,
13BE,
0007,
FC16,
07BE,
F66B,
D834,
F066,
FECB,
3491,
FC26,
1574,
F782,
F468,
E679,
0B4E,
FF83,
0FB2,
E28A,
E91D,
00FB,
086B,
F015,
0E99,
0728,
E80F,
F7FC,
F436,
1009,
05DB,
FDD3,
0A87,
1440,
11F9,
F4F6,
FCF1,
0E2E,
10BE,
F5BA,
0CAC,
0C81,
F447,
0CE1,
EBFF,
139F,
0B0F,
E162,
0087,
1613,
EC79,
12F2,
E989,
008C,
16AF,
F20D,
181B,
09A3,
05AC,
F3A6,
EC77,
0469,
1334,
08FC,
FA5B,
F7B7,
0D3E,
E11D,
F57D,
09B6,
F526,
CDF7,
F1E9,
01E0,
1B47,
10E1,
16D1,
F468,
ED35,
DAD7,
F860,
037F,
FBB6,
0315,
E683,
FB28,
0EC4,
E36E,
0A39,
1028,
D6CF,
1D82,
FF55,
F5FB,
04B8,
0257,
FC56,
0AA4,
0911,
FDCD,
FDC8,
FB1F,
0478,
000A,
284D,
F61A,
FCFC,
113C,
04C0,
0998,
FEA3,
C298,
EC4D,
E8CC,
047D,
14E3,
F2D6,
0918,
15E8,
FE0C,
073D,
1756,
145F,
FC88,
FCB6,
F889,
1FD8,
13B4,
00C7,
F9FE,
1CA8,
08A3,
FD57,
01EC,
F502,
DB0E,
EABB,
FF86,
E268,
F101,
0E6B,
F14D,
F068,
F594,
0951,
E344,
121F,
0BA3,
E4B8,
EF12,
0DEE,
EE82,
1290,
F723,
FD50,
012E,
0300,
F8F3,
0D4B,
F39B,
19E7,
080D,
EBFD,
F63F,
03EE,
07E3,
068E,
D345,
2D18,
EF02,
F53C,
12A1,
0861,
0DDF,
0791,
A22F,
FC85,
12E7,
FA2E,
1A50,
0587,
EB19,
21BE,
00DC,
0645,
1005,
0EC7,
08EF,
EC57,
FC73,
0F92,
1301,
067E,
019A,
1B1D,
F91C,
F1FE,
0604,
F598,
DBEC,
FF85,
F1EB,
C954,
0D19,
17C8,
FF09,
FF65,
FCF5,
EE48,
FA80,
005A,
0B64,
E3E9,
F0BF,
1520,
E0C2,
FFE3,
141C,
EF31,
DC6A,
02EF,
F1A2,
26C0,
F63E,
030C,
F4C3,
F3C7,
DA5E,
16E8,
F471,
E40F,
E671,
43E2,
FDA6,
0605,
13BA,
0970,
FCDB,
0BDD,
A473,
FE78,
10D4,
F864,
1D4B,
F59B,
CA5C,
1151,
FAAD,
FE96,
0D91,
1329,
2D71,
0612,
FE20,
0677,
1464,
044C,
0CED,
1851,
F7CA,
F525,
F25B,
0004,
EC2D,
FB13,
D6DC,
FA98,
024E,
2039,
FB27,
F3A4,
F86B,
01E9,
0230,
F442,
FEAE,
E115,
05D4,
0B30,
D9ED,
19C8,
0260,
EA43,
03AE,
0D9E,
FA78,
0308,
F10D,
0910,
FE45,
0259,
C4D4,
E7B4,
12A7,
E548,
E272,
2D05,
F6CD,
F654,
E7B5,
023C,
05EA,
FC98,
B7F4,
0309,
0A98,
F4DF,
07F3,
0C90,
C355,
FDD8,
E921,
10DE,
0136,
0953,
20B4,
FD54,
0979,
F034,
0C71,
0A1B,
0467,
E984,
026D,
E5F3,
10B2,
FF82,
E9CB,
E7EC,
E55D,
0D18,
007E,
0D82,
0647,
FF15,
0264,
04C0,
1A82,
FE7E,
F996,
DF47,
F2DF,
FC44,
0215,
0414,
11CE,
1318,
14E7,
F851,
FF5A,
EB6C,
FBEA,
F2DF,
E40A,
0C64,
F532,
EC9F,
F7A5,
0111,
FBFE,
32F5,
0373,
F2B2,
DE5B,
1134,
16EA,
ECD3,
AEA1,
F5BB,
FEE3,
012D,
1EC8,
FE94,
EF03,
0E75,
F06C,
EE3A,
FBB3,
13F9,
1E6C,
0E0C,
F9BC,
0232,
06D7,
FD54,
09E5,
88D4,
E626,
EEA8,
F9F7,
07AA,
16AF,
FEEC,
10B7,
FF88,
FEC6,
0D0A,
FCA0,
F26E,
081D,
F700,
1064,
EE2F,
04C9,
F0D3,
FC00,
02D2,
0D02,
13CB,
0AC0,
FBBE,
F872,
FA6D,
FAD1,
F5A6,
E91B,
E054,
217F,
0252,
12F3,
0219,
FD24,
F1B2,
0569,
18EF,
F8CA,
FEC0,
E95A,
087C,
010B,
F580,
B9D1,
FCBB,
165F,
E656,
0A4B,
0494,
02BC,
0859,
0DD0,
05CF,
0D54,
0025,
1314,
0C9C,
07E2,
0B72,
F4E6,
E221,
06B7,
CB10,
F90D,
EF28,
0532,
F12A,
0201,
F4AE,
1206,
FAC3,
FCB2,
0F74,
E50B,
FD37,
FCDA,
F977,
1131,
04D1,
0131,
F538,
0298,
0E05,
0E0A,
0DA1,
14E9,
F35F,
F634,
04EF,
F7C5,
E9F5,
FC33,
FD21,
1984,
136F,
1D5C,
F0F4,
040F,
131D,
0CA9,
157D,
F5A9,
EA94,
F6B5,
0CDE,
056F,
BFBC,
C956,
EE25,
103E,
F3B1,
1FE1,
F730,
0BB9,
03AD,
F1BC,
00AA,
EEEA,
11F3,
0C3C,
111B,
015C,
136B,
10AD,
FF69,
1309,
26C4,
03D1,
D6F8,
0198,
FE75,
1EDC,
F145,
045E,
FC8A,
0D96,
09EE,
F61C,
EB33,
0089,
F104,
257E,
1711,
F9F4,
FD77,
F42B,
FA1E,
2032,
FC4F,
132C,
0FE6,
0684,
FB67,
020E,
E193,
EEEF,
F4C7,
3CF7,
F950,
0FB5,
ECBE,
FC44,
0448,
E5D2,
161C,
0C8D,
055B,
FBF0,
0919,
FFE8,
C020,
DD09,
F55F,
02C2,
F7C6,
FB43,
F80C,
E65A,
FFF9,
F8E0,
FE3B,
F45F,
1599,
0189,
1A42,
EF6D,
0925,
F9B1,
F0F7,
167B,
2169,
EF64,
DD73,
05EE,
0344,
2614,
E254,
FFAB,
0C55,
F2F8,
01C2,
FC4D,
091A,
0032,
0655,
0033,
00BF,
FDD8,
FC78,
F583,
0298,
2F32,
0A47,
158C,
FE20,
FCD3,
EB32,
FC46,
E7C4,
0400,
0613,
2439,
03C3,
0FF1,
061C,
070D,
FFCC,
0E48,
15A7,
02A1,
F8C8,
0E5E,
0646,
00E6,
D5DA,
C6AB,
F30F,
004F,
F598,
1103,
F226,
01D0,
F546,
1462,
EF2A,
05A7,
1CFF,
F2DC,
08E5,
0EAB,
DC68,
02AB,
EA7D,
FBE2,
1850,
010C,
D43B,
F3DB,
0787,
27C9,
F6A6,
F47D,
003F,
DAD7,
0056,
F46E,
070F,
0F7B,
0843,
D680,
0276,
FB05,
059E,
F227,
1E06,
1B0C,
09F6,
0266,
E326,
F46B,
F858,
030C,
EBDC,
EED6,
EB15,
1B2C,
F7B2,
FBBB,
0760,
F415,
F7D1,
0683,
0F79,
01A3,
0362,
0784,
181E,
0DBB,
DF37,
D061,
EE61,
FEEC,
FD46,
171B,
01C4,
F878,
F76E,
045A,
0095,
FF34,
0E0C,
CDA4,
122D,
EF89,
FA15,
03A1,
07E0,
FE4C,
FB86,
0D9D,
D109,
0B27,
1B39,
0419,
F8E1,
FDC8,
0CC9,
055A,
00B9,
1202,
F8B5,
F457,
FE52,
D69A,
F655,
F447,
02BB,
F6CF,
0A65,
136B,
FCA8,
0BE9,
074F,
0480,
00DD,
F3CD,
0429,
0E6D,
106F,
16B8,
EDA7,
0456,
EF73,
FFB0,
F9DE,
1BE9,
0577,
0AD0,
016C,
1FC2,
10A8,
0DF9,
E2A1,
C694,
EE07,
E932,
F092,
0F6E,
EB40,
0844,
FBA4,
0D4A,
0AA9,
166F,
0F65,
D300,
0C6F,
FCAE,
F869,
120C,
E152,
F33C,
1202,
FF4C,
B315,
FC79,
0D07,
0FE1,
D7A5,
0EC1,
EB49,
ECD2,
1254,
00FB,
0727,
F20D,
0094,
E294,
03D7,
E9AE,
0BCF,
F1C0,
0D4E,
1578,
F677,
070D,
F1A7,
FBF9,
FC47,
F307,
FEDB,
0E2B,
F946,
0F6A,
06A7,
F687,
0691,
041E,
EE8D,
16DA,
F725,
15D8,
1707,
F9A1,
0D34,
0A86,
E3EA,
E507,
0654,
10DF,
D289,
0EEE,
E63D,
088A,
FFED,
1A5D,
EE7F,
F52D,
2AB3,
E680,
0F58,
045A,
DE03,
10D4,
FB4D,
E643,
1C66,
0CB4,
BF20,
F995,
0F3C,
0AE2,
E300,
0D16,
0347,
E239,
0CDE,
F4A2,
F36B,
0968,
FC77,
E31D,
11F4,
006E,
1974,
EF69,
1AE2,
0C08,
0CF1,
094A,
E356,
EF07,
0AD9,
005F,
F031,
FB15,
F694,
167D,
F923,
F9C9,
F6E4,
0579,
E9AE,
11E4,
0E2C,
1EFA,
0B5D,
15B7,
0ABF,
11E4,
EAF1,
DCF2,
1768,
06F6,
E917,
252C,
EE03,
10C8,
F989,
0794,
EC17,
F9ED,
16B3,
E404,
10B7,
0BD9,
D3C0,
1426,
1DCB,
C30F,
24F9,
E7A7,
CF2D,
0DD6,
14B2,
15BB,
05F1,
08CF,
E7EA,
F875,
0D47,
0B45,
ECFC,
04E6,
FFF6,
F8EB,
FB56,
FD5A,
1290,
F7FA,
FFAA,
FED6,
F5B3,
0BBD,
0268,
FA7A,
0C87,
02C9,
ED87,
EE3C,
F6A2,
2616,
CF19,
CCF9,
F0F3,
1B2F,
EE67,
0C90,
0776,
1594,
06DC,
0F81,
056B,
FFA3,
FF84,
EE8A,
FEE4,
0D62,
ED56,
1321,
F92B,
07BD,
029F,
0924,
FB98,
FD12,
1C03,
EE64,
22A5,
05B1,
E9DF,
FDA0,
196E,
DB81,
FCB6,
0178,
DD61,
0BD5,
095E,
095C,
F854,
FD7B,
F805,
EE73,
0C04,
0FBC,
ECD3,
03E0,
FBC3,
FEA1,
EE5D,
F55C,
0726,
020E,
00E2,
082E,
EF8D,
1EE3,
EDF5,
1177,
18C5,
0139,
F85F,
F5E3,
FA66,
1898,
F2AE,
EA76,
E82D,
04DF,
02FD,
0AAF,
18D4,
F6C3,
FF71,
00EE,
053D,
14A2,
F52D,
F187,
0D79,
16C4,
F47E,
0E18,
F59D,
1431,
FE4B,
1110,
0077,
07BD,
0C8E,
049C,
FA4F,
F742,
F40D,
FC5F,
047C,
F777,
1108,
F68A,
FC90,
0061,
018E,
0242,
00FB,
F655,
0648,
FA99,
0EF6,
016A,
E80B,
08E2,
03EC,
02FD,
02CA,
F790,
09E7,
FAC2,
0175,
F779,
F4AC,
044E,
FCDE,
0031,
FF77,
06C7,
EE67,
FBDD,
F84C,
FCF0,
F210,
EBDB,
E554,
F9CC,
F645,
1672,
0679,
0495,
F95D,
01C6,
FD23,
0FF5,
0375,
011E,
FC35,
0CAE,
FDD4,
F3E8,
FFD7,
1B4D,
F8FF,
0F65,
0080,
0158,
F55E,
F8AE,
00B6,
F890,
F50E,
F4D3,
FBD6,
F8EA,
142C,
FB36,
F94F,
FF89,
0302,
FF10,
01C9,
0AC8,
F824,
F544,
16BD,
0B41,
F8AD,
12C1,
F9B2,
FCAF,
042B,
FCA9,
006D,
F845,
0F01,
F243,
F6CD,
F4D0,
FF7D,
FF15,
0AE6,
085D,
E9A2,
0328,
F326,
F42E,
F658,
FF78,
E2DC,
0E6D,
FDF0,
00FC,
F84D,
038F,
FA45,
FDAD,
FF5A,
0B36,
0AAE,
ECCA,
0692,
06F4,
0808,
12F5,
EB66,
0E27,
0FC5,
03CB,
DDC5,
F5B6,
FA7A,
FA1F,
03BA,
0923,
098B,
F9E2,
FAA5,
028B,
06CF,
00C6,
EE68,
1689,
02AF,
EFCA,
021F,
F7C4,
F4E7,
FF49,
0F1D,
0801,
F8D2,
EB84,
FA41,
11A1,
0562,
00D5,
F9F1,
FB59,
F42D,
FDF6,
0C36,
F7E4,
FC41,
EC65,
FD29,
FEC8,
FBCE,
06C2,
F9A9,
F9A5,
FC76,
FAE2,
030B,
0CB6,
17BA,
09D8,
0031,
FB7D,
01E7,
00D7,
F8E0,
011E,
F6D3,
F22C,
076E,
FE44,
F02D,
1634,
D671,
164D,
0728,
F498,
E35A,
0893,
04B0,
0068,
08C9,
FFD8,
1690,
0008,
F3A3,
FC6D,
0462,
F7CB,
E86E,
F31E,
0062,
F847,
FEA2,
F872,
DCB2,
F32A,
0F43,
06C2,
F9D5,
F4AD,
EFA2,
1C37,
06D0,
F981,
F3F3,
01E3,
F0E4,
F151,
0640,
FB95,
F376,
ED34,
EFB9,
03F4,
FC65,
03A9,
F7A3,
F83F,
F512,
0681,
FA48,
0953,
1109,
F554,
F993,
066B,
F56E,
F7DA,
FFCB,
1683,
F42F,
E7BA,
FC81,
044A,
EFF0,
09EE,
CABF,
1E35,
082C,
F85D,
F21F,
F6D3,
0375,
FA50,
F418,
0866,
0FF5,
FD8E,
F6ED,
0F27,
0793,
FD3F,
EBD5,
FAC1,
FC0B,
F5FA,
F1FD,
F891,
D083,
FAC2,
0BB1,
F7B6,
01E7,
FEA7,
0463,
FF4E,
FAF5,
F7B2,
F2C4,
130E,
F9C1,
EB95,
F8A1,
0029,
F0AC,
E535,
03DA,
18AA,
0A87,
05FD,
0217,
FD90,
052C,
F2CC,
EE87,
1746,
056C,
070D,
EC28,
060E,
FD11,
122C,
F52F,
0D2A,
04A6,
0657,
087C,
0660,
E1D7,
0B17,
C520,
0D0B,
091E,
F14A,
EFE0,
F48D,
0AC4,
FF8B,
0281,
FAA9,
1A81,
0558,
0303,
0062,
EC80,
FF67,
EB1F,
0591,
F334,
E32B,
F950,
FE61,
DF69,
0890,
0C9F,
FCB9,
FA03,
0494,
ED9F,
F679,
FC91,
0C4C,
F40B,
042A,
0031,
EC9F,
1547,
0B31,
E73A,
F80B,
0B47,
01BB,
0043,
11A6,
1206,
F364,
FDB2,
0977,
ECF3,
12E9,
012D,
06BA,
06F4,
EB41,
F8CD,
0176,
FBD2,
FF05,
FB6D,
0414,
0DDD,
0928,
E383,
0E13,
CE55,
0493,
148D,
0913,
ECEC,
0BC5,
14A5,
05B5,
0AF7,
04F0,
1B34,
0C49,
0024,
0C55,
F7B0,
11D8,
E05C,
044A,
F348,
E0B4,
0341,
00D6,
E77F,
1F36,
140D,
ED6F,
FF31,
F7F7,
003A,
0402,
F4D4,
F133,
D7EC,
011E,
F569,
D7F0,
10CC,
0E40,
FD63,
0A7E,
0DF3,
020B,
06CF,
1FB0,
025B,
DD54,
FF0F,
004E,
F0A3,
FF93,
FE5A,
0B3A,
FB35,
0582,
FF51,
FF5A,
E5B8,
FF19,
F8EA,
0912,
07FC,
06AC,
E7FE,
09A0,
D056,
0010,
1C9E,
0519,
DE26,
0CE4,
1956,
F833,
0594,
FF21,
0756,
FC87,
10C0,
0C49,
0C05,
19A8,
E4EF,
01C8,
F67E,
D5D6,
FCCA,
03B1,
FD20,
056D,
1017,
0051,
FA7B,
1E93,
F219,
0FF7,
FE6B,
FD6B,
CCCA,
012C,
DDAC,
E073,
E58F,
F18F,
E8BB,
FC73,
03F1,
0157,
0074,
F78B,
FA12,
E87F,
FF48,
F77C,
F8E1,
0AFA,
0D48,
0708,
E941,
F522,
F49A,
E87D,
F235,
0523,
F6A0,
0C48,
0AF2,
1B3E,
FD70,
096F,
C6DB,
0084,
0E5B,
1236,
E290,
F5A4,
04B2,
F8E2,
1298,
F6D2,
10F2,
078F,
12CD,
1BB2,
0B65,
016E,
EB32,
054B,
F32F,
D838,
0E1C,
F200,
055C,
0BA3,
018C,
F981,
046C,
15BE,
FCB3,
1BBF,
FEBC,
F83F,
D72F,
F50F,
D0AB,
EA4C,
F219,
150B,
F5BA,
0321,
FE3B,
FC21,
F69F,
18A6,
1328,
ED98,
032C,
0450,
035E,
0D38,
040B,
F8F5,
F209,
0998,
F349,
F5C5,
D57D,
0C84,
F4F7,
06E6,
FF5E,
FFF5,
F527,
0750,
DADF,
FDA9,
1DE6,
FDB8,
F22F,
FE71,
1A76,
F5C5,
FF33,
0273,
061E,
04CD,
FB65,
06DA,
0A8D,
1002,
FF84,
FC63,
0223,
F07B,
EB99,
E544,
140D,
F965,
0689,
F381,
ED67,
0EE8,
0764,
06D1,
FCAC,
01D1,
C873,
F102,
E2B3,
F736,
0124,
0C32,
E66A,
04D1,
0646,
03D4,
07C0,
0A4A,
0213,
E5D2,
1314,
0EED,
FD22,
F6FE,
0AB4,
F702,
ED78,
F971,
E52A,
EC57,
CCF8,
FE42,
F8C5,
0339,
FE88,
103A,
ECA1,
0B4A,
D5B4,
